[PAD]
[UNK]
[CLS]
[SEP]
[MASK]
[BOS]
[EOS]
[unused0]
[unused1]
[unused2]
[unused3]
[unused4]
[unused5]
[unused6]
[unused7]
[unused8]
[unused9]
[unused10]
[unused11]
[unused12]
[unused13]
[unused14]
[unused15]
[unused16]
[unused17]
[unused18]
[unused19]
[unused20]
[unused21]
[unused22]
[unused23]
[unused24]
[unused25]
[unused26]
[unused27]
[unused28]
[unused29]
[unused30]
[unused31]
[unused32]
[unused33]
[unused34]
[unused35]
[unused36]
[unused37]
[unused38]
[unused39]
[unused40]
[unused41]
[unused42]
[unused43]
[unused44]
[unused45]
[unused46]
[unused47]
[unused48]
[unused49]
[unused50]
[unused51]
[unused52]
[unused53]
[unused54]
[unused55]
[unused56]
[unused57]
[unused58]
[unused59]
[unused60]
[unused61]
[unused62]
[unused63]
[unused64]
[unused65]
[unused66]
[unused67]
[unused68]
[unused69]
[unused70]
[unused71]
[unused72]
[unused73]
[unused74]
[unused75]
[unused76]
[unused77]
[unused78]
[unused79]
[unused80]
[unused81]
[unused82]
[unused83]
[unused84]
[unused85]
[unused86]
[unused87]
[unused88]
[unused89]
[unused90]
[unused91]
[unused92]
[unused93]
[unused94]
[unused95]
[unused96]
[unused97]
[unused98]
[unused99]
[unused100]
[unused101]
[unused102]
[unused103]
[unused104]
[unused105]
[unused106]
[unused107]
[unused108]
[unused109]
[unused110]
[unused111]
[unused112]
[unused113]
[unused114]
[unused115]
[unused116]
[unused117]
[unused118]
[unused119]
[unused120]
[unused121]
[unused122]
[unused123]
[unused124]
[unused125]
[unused126]
[unused127]
[unused128]
[unused129]
[unused130]
[unused131]
[unused132]
[unused133]
[unused134]
[unused135]
[unused136]
[unused137]
[unused138]
[unused139]
[unused140]
[unused141]
[unused142]
[unused143]
[unused144]
[unused145]
[unused146]
[unused147]
[unused148]
[unused149]
[unused150]
[unused151]
[unused152]
[unused153]
[unused154]
[unused155]
[unused156]
[unused157]
[unused158]
[unused159]
[unused160]
[unused161]
[unused162]
[unused163]
[unused164]
[unused165]
[unused166]
[unused167]
[unused168]
[unused169]
[unused170]
[unused171]
[unused172]
[unused173]
[unused174]
[unused175]
[unused176]
[unused177]
[unused178]
[unused179]
[unused180]
[unused181]
[unused182]
[unused183]
[unused184]
[unused185]
[unused186]
[unused187]
[unused188]
[unused189]
[unused190]
[unused191]
[unused192]
[unused193]
[unused194]
[unused195]
[unused196]
[unused197]
[unused198]
[unused199]
!
"
#
$
%
&
'
(
)
*
+
,
-
.
/
0
1
2
3
4
5
6
7
8
9
:
;
<
=
>
?
@
[
\
]
^
_
`
a
b
c
d
e
f
g
h
i
j
k
l
m
n
o
p
q
r
s
t
u
v
w
x
y
z
{
|
}
~
¡
£
¤
¥
«
°
³
´
·
»
¿
×
÷
ı
ƪ
ɞ
ʔ
ʕ
ʚ
˂
˃
ˇ
ˊ
ˋ
˕
˙
˚
ε
η
μ
ρ
ς
σ
ω
а
б
в
г
д
е
ж
з
и
к
л
м
н
о
п
р
с
т
у
ф
х
ч
ш
щ
ы
ь
э
ю
я
і
،
؟
ء
ا
ب
ة
ت
ث
ج
ح
خ
د
ذ
ر
ز
س
ش
ص
ض
ط
ظ
ع
غ
ف
ق
ك
ل
م
ن
ه
و
ى
ي
٩
ګ
۶
ଂ
ට
ෆ
ก
๑
༎
༼
༽
ཀ
ღ
ᄀ
ᄁ
ᄂ
ᄃ
ᄄ
ᄅ
ᄆ
ᄇ
ᄈ
ᄉ
ᄊ
ᄋ
ᄌ
ᄍ
ᄎ
ᄏ
ᄐ
ᄑ
ᄒ
ᅡ
ᅢ
ᅣ
ᅤ
ᅥ
ᅦ
ᅧ
ᅨ
ᅩ
ᅪ
ᅫ
ᅬ
ᅭ
ᅮ
ᅯ
ᅰ
ᅱ
ᅲ
ᅳ
ᅴ
ᅵ
ᆞ
ᆢ
ᆨ
ᆩ
ᆪ
ᆫ
ᆬ
ᆭ
ᆮ
ᆯ
ᆰ
ᆱ
ᆲ
ᆳ
ᆴ
ᆵ
ᆶ
ᆷ
ᆸ
ᆹ
ᆺ
ᆻ
ᆼ
ᆽ
ᆾ
ᆿ
ᇀ
ᇁ
ᇂ
ዞ
ᐟ
ᗜ
ᰔ
ᵕ
–
—
―
‘
’
“
”
•
‥
…
‧
※
‼
‿
⁰
⁴
⁻
⁼
₃
₊
₌
₩
€
←
→
↖
↗
↩
↸
⇖
⇦
∇
∞
∼
⊙
⌒
⌚
⌨
⍢
⏰
④
╹
■
▶
▼
◀
◅
○
◎
●
◡
☁
☂
☃
★
☆
☎
☔
☕
☘
☚
☝
☠
☹
☺
♀
♂
♡
♤
♥
♧
♪
♬
♾
⚔
⚖
⚘
⚠
⚡
⚰
⚽
⛄
⛔
⛱
✂
✅
✈
✊
✋
✌
✍
✔
✝
✦
✧
✨
❄
❆
❌
❓
❗
❢
❣
❤
➕
➡
⟨
⬅
⬆
⬇
⭐
、
。
〃
々
〈
〉
《
》
「
」
〰
あ
い
う
え
お
か
き
く
け
こ
さ
し
す
せ
そ
た
ち
っ
つ
て
と
な
に
ね
の
は
ひ
へ
ま
み
め
も
ゃ
や
ょ
よ
ら
り
る
れ
ろ
わ
を
ん
ゝ
ア
ィ
イ
ウ
オ
カ
ク
コ
シ
ス
ソ
タ
テ
ト
ナ
ニ
ノ
ハ
フ
ヘ
ミ
ム
メ
ュ
ラ
リ
ル
レ
ヲ
・
ー
ヽ
ㄱ
ㄲ
ㄳ
ㄴ
ㄷ
ㄸ
ㄹ
ㄺ
ㄻ
ㅁ
ㅂ
ㅃ
ㅄ
ㅅ
ㅆ
ㅇ
ㅈ
ㅉ
ㅊ
ㅋ
ㅌ
ㅍ
ㅎ
ㅏ
ㅐ
ㅑ
ㅒ
ㅓ
ㅔ
ㅕ
ㅖ
ㅗ
ㅙ
ㅛ
ㅜ
ㅝ
ㅟ
ㅠ
ㅡ
ㅢ
ㅣ
ㆍ
䮸
一
万
三
上
下
不
且
世
丙
両
中
主
久
么
乐
也
习
了
争
事
产
京
亮
人
什
今
仕
他
代
们
仲
件
份
会
位
作
你
使
來
係
保
信
倒
倭
健
傻
先
光
克
党
內
全
八
共
关
兵
军
冥
処
出
分
刑
利
前
力
加
动
努
勉
務
包
北
区
卍
卒
協
南
即
压
原
反
取
可
台
吃
君
吧
告
味
命
和
哀
哈
員
哭
嗎
嘉
回
国
國
在
地
坏
坦
垮
執
基
報
場
壓
壞
士
変
多
大
天
太
女
好
如
子
学
安
定
客
害
家
容
对
就
展
島
工
希
師
席
帰
平
年
庁
府
度
弁
式
弓
弘
張
強
强
当
影
役
很
心
必
忘
思
性
怪
总
恥
恨
您
悪
惑
想
意
愛
感
懲
成
我
戦
戻
手
打
找
技
抵
振
捕
捜
换
捨
掻
撚
改
政
故
文
方
旅
族
日
早
昇
是
普
晴
暴
曰
書
月
有
服
望
朝
期
木
本
机
李
材
束
東
果
査
植
業
楽
機
次
歳
死
殴
段
毁
每
民
江
没
治
泡
洙
活
浅
消
淄
淑
渋
港
游
漢
灣
灭
為
無
燃
爱
爸
片
物
犬
犯
狗
独
玄
玉
王
玩
現
理
生
用
田
由
申
男
界
異
疑
発
的
皇
目
相
看
瞉
知
石
碎
祈
福
私
立
笑
節
粉
紓
素
終
絲
練
结
统
署
美
翻
者
而
聊
職
肉
能
良
节
若
英
菜
虐
蛋
行
術
表
被
裁
褎
見
視
観
言
訳
詫
話
語
請
警
譯
護
记
话
语
说
谢
谷
賓
賛
趣
路
車
転
近
返
这
进
迷
送
逆
這
通
逮
進
逼
運
道
達
選
邀
郞
金
销
锅
镇
開
関
门
陛
雄
集
韓
韩
音
頑
頭
願
顺
食
養
館
鮮
鳥
麠
麻
麼
黙
꒨
꒰
꒱
ꖶ
ꢭ
！
（
）
，
０
２
４
９
＜
＞
？
＼
＿
｀
｜
｡
･
ｦ
ﾟ
￣
￼
𐌅
𐨛
𖤐
𝓗
𝓳
𝓷
𝓸
𝓾
𝔂
𝘼
𝙄
𝙇
𝙍
𝙕
🅥
🇦
🇧
🇨
🇪
🇭
🇮
🇯
🇰
🇳
🇵
🇶
🇷
🇸
🇹
🇺
🇿
🌀
🌉
🌊
🌛
🌝
🌞
🌟
🌦
🌧
🌩
🌫
🌱
🌲
🌳
🌵
🌷
🌸
🌹
🌺
🌼
🌾
🌿
🍀
🍁
🍂
🍃
🍄
🍅
🍇
🍉
🍊
🍍
🍎
🍏
🍑
🍓
🍖
🍚
🍜
🍞
🍦
🍧
🍪
🍫
🍮
🍯
🍵
🍷
🍼
🍾
🎀
🎁
🎂
🎄
🎅
🎆
🎈
🎉
🎊
🎓
🎗
🎙
🎚
🎧
🎩
🎭
🎴
🎵
🎶
🎷
🎹
🎺
🎻
🎼
🏃
🏇
🏎
🏙
🏡
🏵
🏸
🏻
🏼
🏽
🏾
🐂
🐃
🐋
🐎
🐑
🐒
🐓
🐔
🐕
🐖
🐙
🐜
🐝
🐟
🐠
🐡
🐢
🐣
🐦
🐧
🐩
🐬
🐭
🐯
🐰
🐲
🐳
🐵
🐶
🐷
🐸
🐹
🐾
👀
👄
👆
👇
👈
👉
👊
👋
👌
👍
👎
👏
👐
👓
👟
👡
👨
👩
👮
👰
👶
👹
👺
👻
👼
👽
👾
👿
💀
💃
💅
💊
💋
💌
💍
💎
💐
💓
💔
💕
💖
💗
💘
💙
💚
💛
💜
💝
💞
💟
💡
💢
💣
💥
💦
💨
💩
💪
💫
💬
💭
💯
💰
💵
💻
💼
💽
💾
💿
📀
📉
📌
📚
📞
📟
📠
📣
📱
📲
📹
📺
📻
📼
🔄
🔊
🔔
🔚
🔥
🔪
🔮
🔴
🔺
🔼
🕊
🕯
🕴
🕵
🕹
🖐
🖕
🖤
🖥
🖨
🖱
🖲
🗜
🗡
🗾
😀
😁
😂
😃
😄
😅
😆
😇
😈
😉
😊
😋
😌
😍
😎
😏
😐
😑
😒
😓
😔
😕
😖
😗
😘
😙
😚
😛
😜
😝
😞
😠
😡
😢
😤
😥
😦
😨
😩
😪
😫
😬
😭
😮
😯
😰
😱
😲
😳
😴
😵
😶
😹
😻
😼
🙂
🙃
🙄
🙆
🙇
🙈
🙉
🙊
🙋
🙌
🙏
🚀
🚎
🚑
🚒
🚓
🚕
🚗
🚘
🚙
🚨
🚪
🚫
🚬
🚮
🚰
🛀
🛌
🤌
🤍
🤎
🤐
🤑
🤒
🤓
🤔
🤗
🤘
🤙
🤛
🤜
🤝
🤞
🤟
🤠
🤡
🤢
🤣
🤤
🤦
🤧
🤨
🤩
🤪
🤫
🤬
🤭
🤮
🤯
🤲
🤴
🤶
🤷
🤸
🥇
🥔
🥕
🥚
🥛
🥝
🥢
🥮
🥰
🥲
🥳
🥵
🥶
🥸
🥹
🥺
🥾
🦀
🦄
🦆
🦇
🦈
🦉
🦋
🦏
🦐
🦑
🦒
🦙
🦚
🦜
🦞
🦧
🦭
🦺
🧌
🧐
🧑
🧚
🧡
🧣
🧲
🧸
🩰
🩱
🩵
🩷
🩸
🩹
🪁
🪄
🪅
🪓
🪔
🪕
🪚
🪴
🫂
🫠
🫡
🫢
🫣
🫥
🫧
🫰
🫴
🫶
##ᅡ
##ᆯ
##ᄋ
##ᅲ
##ᄌ
##ᅩ
##ᆺ
##ᄇ
##ᅢ
##ᅮ
##ᆫ
##ᄀ
##ᅥ
##ᅵ
##ᆨ
##ᄃ
##ᅳ
##ᄁ
##ᄅ
##ᆼ
##ᄉ
##ᄒ
##ᅦ
##ᆻ
##ᆸ
##ᄂ
##ᄄ
##ᄆ
##ᅪ
##ᅧ
##ᄎ
##ᅬ
##ᆰ
##ᄏ
##ᆷ
##ᅣ
##ᅭ
##ᄐ
##ᄊ
##ㅋ
##ᆭ
##ᅴ
##ᅤ
##ᇂ
##ᄑ
##u
##b
##t
##i
##l
##e
##s
##f
##o
##n
##w
##2
##4
##0
##5
##ᅯ
##ᇀ
##ᆹ
##ᅱ
##😂
##ㆍ
##ㅎ
##ᅫ
##ᄈ
##ᄍ
##ᆮ
##3
##k
##m
##ㅉ
##ㄱ
##ᅨ
##ᆽ
##ᇁ
##1
##ㅇ
##ᆾ
##a
##h
##ᆬ
##d
##ᆱ
##7
##ㄴ
##ㄷ
##ᆩ
##а
##и
##к
##💊
##💜
##😢
##9
##ᆿ
##g
##ᆢ
##j
##ㅡ
##ㄲ
##ㅜ
##ㅣ
##v
##ㄹ
##ㅅ
##p
##r
##c
##ㅈ
##♥
##y
##6
##ㅊ
##😊
##❤
##ㅠ
##ᆵ
##ᆶ
##ᅰ
##☔
##🦄
##ㅂ
##💛
##ᆲ
##ᆴ
##ㅁ
##🐖
##🐾
##🫢
##し
##た
##い
##て
##す
##ᆪ
##z
##🔼
##8
##🙏
##👏
##🏻
##♀
##🤦
##🔥
##👀
##👍
##🙋
##ㅓ
##𐌅
##🤙
##ㅌ
##ㅑ
##ك
##ن
##ه
##🤍
##🖤
##♡
##q
##ㅆ
##💙
##😑
##は
##ㅏ
##л
##о
##г
##в
##ج
##ل
##😁
##🥕
##ㅐ
##🥰
##ا
##ы
##🤢
##🤮
##🌾
##💬
##д
##р
##🤣
##x
##💚
##☁
##🐂
##ح
##ب
##م
##😭
##🫣
##☺
##🎉
##😱
##ي
##🫶
##💖
##😥
##😆
##🥲
##💪
##🏼
##😅
##👿
##💓
##❄
##🌲
##🫧
##💘
##🥛
##🍼
##💗
##🏽
##🥹
##🌷
##📻
##み
##ر
##ж
##е
##ᆳ
##🥵
##😮
##💨
##😡
##🤬
##💦
##👎
##♂
##😳
##っ
##レ
##イ
##シ
##ー
##ク
##ソ
##❢
##😤
##🤩
##💋
##🎈
##🍵
##😘
##و
##у
##ч
##ш
##🤗
##🍂
##🍄
##ዞ
##４
##０
##🇦
##😍
##🎅
##お
##ㅍ
##な
##ㄸ
##😄
##🗜
##🤭
##👨
##⚖
##🇺
##る
##コ
##ミ
##の
##б
##т
##❣
##📞
##😀
##○
##💰
##⭐
##ى
##⚽
##🇰
##🇷
##🚫
##🌹
##💕
##🚒
##د
##🖕
##✂
##🪓
##🗡
##🕯
##🪚
##☠
##⚰
##ち
##か
##🥇
##ㅒ
##ま
##✦
##🐕
##🦋
##📼
##🎄
##ㅔ
##🫡
##ㅃ
##´
##ཀ
##と
##🤌
##ت
##こ
##を
##ㅗ
##🍀
##ᆞ
##😛
##💢
##💌
##✨
##خ
##🥺
##💀
##😋
##ˇ
##☕
##с
##👉
##や
##ろ
##😝
##💥
##ひ
##ヘ
##ス
##ト
##😩
##×
##☃
##🤎
##🍞
##🐦
##き
##🌝
##ㅛ
##ᗜ
##ˋ
##ん
##に
##ゃ
##🥶
##🤤
##🏃
##🔪
##💝
##🙈
##🙊
##🎚
##☂
##🙂
##🦒
##👻
##😏
##🕹
##💃
##ㅕ
##🧌
##😠
##❗
##😜
##💫
##۶
##⁼
##³
##₌
##₃
##м
##ю
##🙆
##🫥
##🤔
##👆
##れ
##😃
##🏇
##🤲
##🖥
##👓
##👌
##🏎
##😉
##╹
##😇
##🧐
##ㅖ
##🥳
##ょ
##う
##✅
##😨
##🙇
##💐
##🫂
##🦜
##ع
##н
##😵
##🚕
##🤷
##🤯
##ら
##🐧
##ㄻ
##メ
##テ
##ィ
##ア
##я
##щ
##😬
##ෆ
##🤠
##🧡
##☘
##ㅄ
##🫠
##ق
##х
##😚
##ص
##ヲ
##🤸
##🍏
##🎁
##🤪
##❌
##🙌
##ᵕ
##˙
##ㄺ
##ナ
##ム
##✌
##😎
##🏡
##🐶
##🐒
##🐢
##🐎
##🍷
##🍾
##🍫
##🕊
##🌀
##🧚
##🚮
##✋
##→
##꒨
##⁰
##ㅟ
##よ
##🫰
##🤨
##🤑
##ﾟ
##🎀
##😻
##😗
##👹
##🎗
##📲
##÷
##🎊
##💩
##👊
##¤
##🚎
##￣
##＞
##ㅝ
##め
##さ
##🐩
##👶
##も
##🤓
##😈
##⛄
##😰
##🦧
##💯
##🙄
##🪅
##🔄
##💵
##❓
##🌟
##➡
##🔮
##🏙
##👰
##🌉
##😖
##💍
##🦏
##⛔
##🐑
##س
##🙃
##💽
##🍎
##🚀
##🌛
##く
##ı
##け
##😒
##つ
##ь
##り
##🧣
##🫴
##ね
##🐔
##💾
##🇿
##🎹
##🎺
##🎻
##🪕
##🩰
##👡
##🥾
##🩱
##🦺
##🎴
##🐹
##🍦
##🍮
##⛱
##🇵
##そ
##あ
##わ
##ハ
##カ
##🤧
##ش
##🚙
##😴
##🇧
##💞
##🌸
##🤐
##∼
##ω
##｀
##🐵
##🤘
##ف
##🦚
##🎭
##ゝ
##◡
##🐃
##🪁
##🚘
##⬇
##⬅
##↩
##💼
##👈
##🎙
##⌚
##👼
##📣
##😶
##🌫
##📟
##🍇
##🤶
##👋
##🤞
##💣
##🌿
##🌱
##ラ
##👾
##■
##☝
##ة
##🌧
##👺
##👽
##📠
##🇯
##📉
##せ
##リ
##ㅢ
##タ
##🎶
##🎼
##🎵
##🐲
##🚬
##👐
##🍪
##２
##💿
##☆
##▼
##🅥
##🐙
##🦑
##🦐
##🦞
##🦀
##🐠
##🐬
##🐳
##🐟
##🐋
##🦈
##🦭
##🧸
##🩹
##✧
##🏵
##👩
##🎓
##ф
##フ
##ル
##ګ
##🦆
##🥮
##і
##🔴
##п
##📱
##🤫
##🚗
##🍓
##👮
##🖱
##📺
##☹
##❆
##★
##🤛
##🤜
##🐯
##♧
##з
##😔
##𝙄
##𝙍
##𝘼
##𝙇
##😓
##🙉
##🚓
##∞
##⁻
##🇭
##ɞ
##😯
##😹
##🇹
##🤴
##🖲
##𝔂
##𝓾
##𝓷
##𝓳
##𝓸
##°
##🐷
##⁴
##🎧
##🌼
##🩷
##🏾
##９
##ط
##ء
##ρ
##μ
##η
##ς
##🇸
##⚡
##☎
##ز
##😫
##£
##¥
##💻
##ニ
##ュ
##🇳
##🚑
##⚔
##🍁
##🦙
##🤝
##🛀
##٩
##꒰
##⍢
##🌵
##💟
##🛌
##😪
##غ
##✈
##👇
##🌊
##🌺
##📀
##🪔
##←
##🖨
##⌨
##🇮
##🇶
##🍍
##🍉
##🍜
##₩
##🧑
##🦇
##ウ
##∇
##⌒
##💎
##🩸
##😼
##↗
##😌
##🍊
##💅
##ظ
##オ
##🤟
##🍑
##🐭
##₊
##🪄
##ᅳᆫ
##이
##ᅡᆫ
##ᅳᆯ
##는
##지
##ᅡᆯ
##가
##고
이
##다
##라
##ᅥᆫ
##도
##하
##ᅧᆫ
##어
##서
##들
##ᅵᆫ
그
##니
##게
##에
##ᅡᆼ
아
##아
##리
어
##은
##나
##자
##ᅮᆫ
##면
##야
나
##로
##데
##ㅋㅋ
거
##해
저
##거
##기
##으
하
##시
##러
가
##을
##ᅮᆯ
##냐
##한
##네
##인
##ᅮᆨ
사
##ᅩᆫ
##ᅢᆼ
##ᅧᆼ
모
지
마
##ᅥᆨ
조
너
다
시
##ᅩᆼ
##요
안
##만
##ᅥᆼ
##ᅩᆨ
##까
여
##려
##대
##사
있
##ᅳᆷ
자
보
##주
한
해
없
##는데
바
진
##래
##ᅥᆯ
##ᅯᆫ
##겠
##마
##ᅩᆯ
##를
##짜
아니
##런
##들이
그러
##ᅳᆼ
##보
말
내
진짜
##람
##제
##무
##여
##하는
왜
##구
##ᇂ게
정
##의
##스
##ᅮᆼ
대
못
##국
같
##상
인
##에서
일
무
##부
뭐
애
사람
##으로
기
오
ㅋㅋㅋ
##치
생
##수
##들은
##신
잘
##니까
되
우
##생
##음
남
##버
##바
##겨
##으면
수
##드
개
##정
##ᆭ아
##간
차
좋
ㅋㅋ
##다고
##ᆨ이
노
부
##되
##ᆻ어
##전
##히
##더
것
##는거
##테
##원
여자
##장
##ᅪᆫ
미
##랑
##건
야
##하고
##같
##냥
니
##ᅡᆯ아
요
좀
##일
##니다
##라고
##ᆸ니다
##우
##르
제
고
그냥
너무
죽
##차
더
##세
게
##ᆷ이
##던
##모
##ᅢᆨ
버
##오
##진
주
돈
##각
먹
많
##금
##노
##ㅋㅋㅋㅋ
##미
##ᆻ다
만
그런
##할
##ᅧᆯ
##말
##그
##워
##먹
##내
때
전
그래
##성
##ᆻ는데
##한테
##적
##임
맞
얼
##잖아
##민
##봐
어ᄄ
피
##와
##심
살
소
##화
##디
싶
##소
할
우리
생각
##조
하는
##레
##더라
드
##동
##식
공
와
비
##저
유
남자
봐
##ᅡᆨ
##면서
##번
##져
##운
##발
##긴
들
##호
##녀
##었
군
##해서
##질
##유
##든
중
도
##문
##개
##렇게
##년
##단
세
건
##야지
##본
##때
##비
머
##슨
##인데
내가
##터
걸
##애
##안
저런
입
무슨
상
난
##하게
##분
같은
##없
당
##겠다
##체
##과
않
성
쓰
불
##직
그렇게
##처
##하지
문
국
##ᅵᆷ
처
간
##트
알
집
##것
##실
화
##하면
##어서
##님
##했
받
##이야
##이라
##선
배
##린
##교
##까지
##키
예
##새
##리고
##하다
##걸
##즘
##통
누
연
##있
##친
##회
재
돼
##굴
신
눈
##당
##같은
근
##업
##난
장
##남
##방
요즘
나라
구
어떠
매
##청
엄
한국
정신
거지
줄
##준
##른
또
##명
##력
##이나
##속
##용
어떻게
치
##타
동
##함
스
모르
##듯
##던데
##물
##피
얼굴
##살
##위
##날
##ᅣᆼ
운
감
역
방
선
##행
##이지
##벌
이런
##배
보면
##줄
##네요
어디
##쳐
하고
영
싸
의
위
##늘
없는
일본
느
많이
##대로
##세요
##럼
따
##능
##중
##ᅵᆨ
인간
##족
##ᆻ으면
있는
싫
##역
##럽
에
##줘
결
벌
손
애들
##길
##이다
##닌
쟤
자기
##보다
반
하나
##호사
과
##리는
##형
알아
음
##려고
##겠지
뒤
이제
좋아
##끼
참
쳐
##울
경
##연
##학
서
##재
하지
##충
근데
##병
##계
들어
타
##법
오늘
있어
원
##경
##머
##나라
발
친
##혀
안되
##산
##레기
머리
##돼
##ᆻ네
물
심
##예
##크
##는게
힘
##부터
교
학
##빠
강
듯
문제
##작
부모
##격
##처럼
##한다
##급
##ᅥᆷ
##집
지금
##매
간호사
아닌
거야
같아
##셔
판
##켜
##못
##해야
뭔
놈
아무
실
법
##ᇂ고
저렇게
얼마
나오
본
돌
##ᅮᆷ
관
##혼
##따
계
##죄
넌
##가지
##문에
##관
##인들
언
빨
##하네
올
네
##달
그럼
외
나는
정말
양
사람이
너는
##구나
이번
꼴
다니
맞아
##라도
없어
##박
열
급
##감
##들어
##파
코
##양
나도
##ㅋㅋㅋ
##ᅳᆨ
##등
망
새
##름
니가
##프
몰
##란
##받
##인이
이렇게
분
##꾸
##겠네
##다가
소리
그래도
백
몸
걔
까
##이고
욕
꼬
##망
##겠어
##ᆸ다
##며
##티
##ㅋㅋㅋㅋㅋㅋㅋㅋ
##같이
병
패
쓰레기
어ᄍ
##습니다
잡
현
얘
##릴
##반
민
##증
##루
속
살아
똑
인생
##두
응
키
아니라
보고
뭘
##군
##공
ㅋㅋㅋㅋ
술
##태
허
##놈
##죠
완
얼마나
앞
##종
말이
했
##패
빠
달
##아서
짜
추
##하냐
우리나라
똥
수준
중국
끄
운전
평
며
##권
##ᅢᆼ이
##온
애들이
꼭
##ᆺ이
아직
##들도
같이
다른
놀
아이
후
그렇
좋은
넘
최
직
##이네
30
막
##ᆷ죄
##석
그게
##판
##ᆫ데
하면
##령
##인가
엄마
밥
회
##해라
찌
##지도
##ᆫ다
적
웃
누가
##송
##ᅥᆯ어
날
취
별
박
결혼
솔
것도
##ᆻ냐
##료
사고
##복
10
멍
##ᅦ미
그거
##합니다
때문에
이상
해야
친구
##다니
##좀
##더니
정도
애들은
아주
작
그만
##느
##에게
등
데
완전
아니고
두
##글
##지는
나와
아니야
틀
##련
##ᆷ새
##ᅩᆸ
##적으로
##하는거
##ᆩ에
몇
##쁘
파
번
##라는
행
싶다
##소리
딱
##휴
만나
##적인
잘못
##발진
##절
맨
사람들
솔직
##어나
##편
##설
##으니
함
##돌
여기
있을
같은데
귀
##지만
명
필
##씨
급발진
##이냐
##놓고
목
나이
##다는
##하는데
받아
않아
##ᆻ나
환
갈
솔직히
##불
편
세상
출
한남
제발
아니냐
##싶
##에는
시간
##이라고
##ᆻ을
##지고
국민
##겠냐
길
##코
##식이
맨날
##류
##락
##육
멍청
##이랑
##천
##ᅯᆯ
##림
피해
존
##깨
##입
확
쉬
##해도
빼
먹고
##험
말고
단
절
##근
##한거
##으니까
##징
##사람
##싸
태
많아
이번에
초
엄청
##출
##거리
##갈
##먹고
음주
죄
공부
아님
##는지
##것도
괘
이게
생겨
군대
호
##너
##영
##꺼
대한
##잡
언제
설
헤
제대로
페미
폭
이거
##보고
##이면
괜
사회
뭐가
짱
한번
악
커
무서
##버려
못생
돼지
##월
##끄
##기는
##가는
이해
##쁜
찍
돌아
##딱
역시
걍
없다
##주는
많은
혼
티
##는거야
범죄
재미
##자가
역겨
죽어
학교
##가서
##결
될
인정
천
##운전
##초
##지마
뽑
##ᆻ지
채
미국
사는
청
##별
##점
죽여
너도
답
떨어
##쓰
한녀
20
##강
##팔
되는
딸
##정도
겨
연예
약
믿
계속
한다
징
뉴
좋겠다
##거야
그래서
끝
##라서
필요
##추
볼
##엔
김
##려서
##민국
##ᆻ다고
##찰
짓
어제
##희
식
##마다
거기
##된
보내
판사
##워서
말을
냄새
##카
맛
큰
카
##하면서
##는거지
##약
가서
그러니까
싫어
찾
##술
자식
병원
다시
##에도
힘들
##죽
##로나
은
##귀
처벌
그러게
원래
##ᆻ음
듣
##텐데
##쌍
##록
어린
된
뇌
##이가
이러
##없는
떠
##이는
##거지
##자들
세금
##통령
당연
##리가
줘
토
아냐
써
있지
특
##토
아직도
옷
##머니
갑
빨리
하는데
##량
형
종
북
메
가족
##독
면
장애
##하기
##러운
군인
포
살인
##움
##플
##하나
##품
하냐
##활
씨
##딴
##ᆸ게
##했다
통
여자들
##론
저러
여자가
바로
혀
##이라도
질
능
##ᅳᆺ
사람들이
그리고
온
한심
싶어
##지가
##억
만들
##올
##하시
먹어
##보면
주제
그건
##투
##표
##존
이미
마음
##을까
쪽
회사
월
검
##ㅠㅠ
합
불쌍
##기가
있는데
코로나
이래
##해주
몰라
##ᆨ정
산
##슴
난리
바ᄁ
담
방송
##력이
##맞
대통령
##했어
##인지
정치
##시켜
자살
기사
음주운전
항
##한데
너가
대한민국
이유
##으면서
해도
##친구
영상
나가
골
브
어떤
##순
하네
##깐
정부
만들어
##이어
축
빨아
크
##입니다
##써
##심히
##알
그렇지
인성
대단
지들
척
##짓
##악
##포
##말고
글
짱깨
지역
##건데
##한다고
##습
임
극
쟤는
광
##거든
걱정
순
##만원
##ᆷ에
그걸
군인들
테
사이
보여
##리면
1년
변
##는것
혼자
대학
열심히
##승
##구만
백신
투
##중에
있다
해서
##쟁
##후
##볼
##들을
시켜
댓
누구
##시간
##는다
자꾸
너네
탈
##기도
알고
찐
##주고
깨
제일
ㄹㅇ
가슴
해라
터
##즈
##밖에
라
##버리고
아무리
##변
하루
금
끼
##메
##팅
잠
요새
아버
게임
##있는
어쩌
##들한테
##찮
##페
##동안
##케
##었으면
늙
##개월
##해야지
틀딱
##리지
##외
##ᇂ은
먼
팔
##벼
표
외국
뜨
운동
별로
##척
북한
쓸
지나
##무원
##차피
##자는
보는
조선
##창
##목
##아니
다녀
없어서
##각이
##랜
진심
##자기
그럴
어차피
평생
##폭
##찍
댓글
으
##기를
생긴
것들이
뉴스
##레이
풀
휴
지가
늘
##했는데
##와서
준
##큼
바가지
어때
연예인
##치는
착
짜증
걔네
##럽게
둘
아까
##ᆷ마
ㅎㅎ
있으면
##러워
##ᆨ임
##가리
기분
##ᆻ어요
##00
봐도
##탄
##언
없이
화장
그니까
##끼리
윤
않냐
##색
사실
##없이
아니면
사진
절대
싹
삼
용
##접
여자는
못하는
나온
있냐
레
충
수도
배우
##딩
트
##골
아닌가
있네
##이들
##꼬
헐
이건
다들
##은데
복
리
##님이
점
예쁘
##시키
없는데
##ᆯ까
##수가
갑자기
없고
노래
뻔
정신병
자체
시키
독
##대체
남자가
##하니
해야지
현실
밖에
낫
##커
##들아
사기
##그래
옆
##황
##시고
보니까
없네
ㅠㅠ
##쪽
도대체
##빨
경찰
어디서
프
하는거
체
생각해
##득
##빵
##열
아는
사람은
##하는게
대체
##하니까
사형
붙
##던가
##ᇂ아
보기
##값
정상
##거나
안보
봤어
주제에
##져서
##념
좌
나한테
다음
##어야
##ᆺ기
웃기
##허
거임
##봐야
얘기
국가
##지게
##찌
흐
##숙
공무원
제설
ㅋㅋㅋㅋㅋ
너같은
음식
##베
##퀴
철
해주
네가
곳
가지고
##슬
것들
##합
아프
집에
##환
전에
속도
직업
생각이
##사가
겁
가능
ㅇㅇ
##씩
사람들은
뭐야
반성
저기
##치고
여자들은
알바
##대는
무식
##랄
장난
모든
논
안돼
니네
여성
높
##같아
찐따
##돈
여친
보니
총
년
##폐
궁
##누
가는
어려
##패스
베
##먹는
##주의
##ᆨ에
##돼지
캐
##줘야
##철
##않
폐
먹는
##향
억
이래서
##튼
조금
잡아
##어도
앉
흑
##께
느ᄁ
했는데
놈이
##탈
##범
##브
하여
업
사랑
##전에
없지
아닌데
##택
##뚱
##시다
##라지
썩
택
건데
애가
아빠
하면서
담배
뚱
모르는
보이
ㅉㅉ
##ᆻ잖아
th
##고싶
된다
##놔
##립
히
##ou
자랑
같다
##럽다
아이돌
##하더라
상관
놈들
하긴
본인
##취
##에서는
처음
##에요
다니는
도로
사귀
항상
꺼
빡
##건가
젊
없음
말아
잘생
##조건
찾아
있음
일이
저거
##ᆮ어
##하자
##칠
어느
미개
##찬
챙
##견
있나
##스크
##되는
하나도
벗
울
##심이
똑같이
##책
##튜
의사
말하는
##침
행동
먼저
먹을
##쉬
##킨
##있어
미안
미쳐
교육
신경
칼
무조건
지들이
못생긴
뛰
##백
##봤
알아서
쪼
##부대
##때문에
멍청한
##레이크
##머리
##짐
했어
따라
어떡
동네
이야
에휴
혹
##라마
집에서
##됨
##응
중요
홍
##담
물어
귀여
##퍼
##먹어
괜찮
마라
##광
어휴
낮
넣
왕
갖
암
빌
##장이
되지
는
안타
##사고
##채
##라리
결국
남친
100
고생
감사
##현
남편
돈이
그동안
같음
##기만
멋
때려
##시아
왜이
##밥
##나서
얼굴이
전부
##in
##린다
영화
##보네
더러운
##답
##라니
가해
다리
엉
말이야
브레이크
##키로
##ᆻ대
##먹을
남의
장애인
##잘
##많
키우
##어가
##폰
올라
만든
##뜨
##드는
##가지고
극혀
일을
##길래
조심
디
##보단
ㅋㅋㅋㅋㅋㅋㅋ
나중에
맘
입고
##옥
아니지
환자
장사
차라리
##말이
##규
드라마
미친
저게
헬
##곳
말도
못생겨
##ᆻ던
##ᆽ어
나오는
##나오
##구석
##수도
안타까
##르고
있었
생기
##해요
쓰는
떡
할머니
책임
각
##들의
무시
##나요
그런거
나라가
##초에
##덕
육
잔
거의
뽑아
##ㅎㅎ
##하다고
문제가
러
##ㅋㅋㅋㅋㅋㅋㅋㅋㅋㅋㅋㅋㅋㅋㅋㅋ
아파
클
밀
거냐
##부분
뿐
퇴
39
##덩
##평
뭐냐
##율
##병원
헤어
이상한
##꼴
##ᅳᆼ민
부모님
앞으로
성형
서울
사람을
스ᄏ
헛
##될
맞는
몸매
##센
와서
연애
가정
유튜
남자들
느끼
기본
눈이
예쁜
로
쌍
##잔
지지
팬
##인거
##주면
뒷
지능
조용
딤
##버리
##봐라
##지면
##나는
그러면
들어가
##범죄
아줌마
프로
멀
한다고
배달
자신
바라
##격이
의료
궁금
##하잖아
##시는
됨
괴
##니깐
끌
##했으면
증
시작
##ns
봐라
##사는
군부대
범죄자
##ᆸ네
##나게
##참
주변
민주
50
침
창
인터
애초에
좋아하는
조선족
하더라
##욕
관리
것들은
당신
짐
##막
어쩔
바뀌
죽을
싶은
괜히
딤디
##꾼
##얼
##는걸
혹시
신고
택시
##코패스
##km
##려면
벌써
양심
꾸
빈
수가
보호
##애들
받고
당연히
쥐
없으면
##건지
안하고
##둥
##십
젊은
오래
##생활
게이
스쿨
##ᆻ다는
최고
능력
가면
못한
잼
##쟁이
대부분
##된다
##르는
자체가
일반
나와서
##성이
슬
##여서
##대가
굴
##려는
싶네
관심
##지를
자기가
뒤져
머리가
모자
##에서도
상황
##하세요
숨
##받아
##등학
##봤자
##정신
##이라는
벌레
##넘
싫다
지키
##션
##제로
옛
혐
you
월급
합니다
##들이랑
바람
개돼지
선생
##손
이기
##나봐
##원도
##랜드
있어서
낳
좋겠어
이해가
##닥
가만
돈을
죽이고
##er
맞지
겁나
##려야
전쟁
러시아
##뻔
되냐
축구
##난다
사건
소개
있을때
##북
##이니
너희
인간이
##놈들
훈
생각을
김치
뿌
색
팔아
ㅇㅈ
##ᆯ리
징징
##뻐
##롱
지하
##아치
노력
##둬
답다
##교육
들고
이유가
안전
불편
##충들
정도면
행복
##an
##괴
존재
##기에
부모가
스쿨존
##일이
##봐도
##남이
여자친구
싸이
##스트
접
##상이
노인
쟤네
중에
퍼
희
정권
##기로
##은거
돈도
새로
##짝
##껄
깜
와꾸
##탕
시험
##없다
밝
건강
보다
눈치
밟
제가
##기고
##틀
비싸
##주세요
여자들이
정신차
해체
##극
탓
피해자
자격
법이
##해보
저번
때마다
##필
태어나
##에선
아니다
##저씨
##했네
거짓
교수
ㅈㄴ
##만큼
##간다
출신
##하러
##진다
##냐고
마스크
##하긴
세계
##벽
뚱뚱
사장
##겠는데
씌
튀
뭐라고
있다고
##같은데
털
##앞
놈들이
위해
오빠
문재
밑
모르고
짐승
##흥민
선수
답답
뭔가
sns
##례
##겠음
해줘
##이트
나올
많다
남자는
남자친구
위험
##하려고
나서
##러지
가져
옛날
##ᆸ지
밤
##히려
##곤
##도록
다르
학생
합의
하자
##놈이
시끄
##겠다고
확실
하니까
하지마
안되는
##버려야
아버지
##ᆻ다가
덜
##스타
되면
스트
##이로
##리네
##벌레
##뿐
오히려
개념
힘든
일단
##보는
연기
잼민
##보니
없냐
##스로
전라도
텐데
##가락
##으려고
따로
##더라고
이름
##탁
그때
땅
##해줘
##갱이
##려나
뭐라
모두
그딴
##자들이
##좋
손흥민
자동
##들만
##되면
적당
고마
##정부
##텔
##픈
해결
수준이
##퇴
##씬
졸
그런데
사과
맛이
##의원
##클
##우는
그지
##숨
서로
올려
우리가
뭔데
거면
꿀
빵
늦
돌아가
카페
이쁘
양아치
벼
##인줄
여행
곧
##인은
##양이
##라면
노예
굳
##할까
걸려
쇼
지켜
좋다
그것도
##거면
##했다고
염
기다
없애
권
##남아
##알아
##째
##리를
##검
가난
여러
##그러
공개
##끔
##훈
끊
핵
바꿔
##만에
##맛
일어나
그런가
건가
##이잖아
기대
##레스
못해
임신
##앙
웨
없을
머가리
스타
##ᆸ고
##도로
주고
##먹었
내려
##거리는
집안
혐오
보네
##수저
맞고
죄송
준비
나쁜
그러는
방구석
지원
동물
무능
딴
ㅜㅜ
##지말고
##감이
지방
일부
언니
##인다
쓰고
못하고
사람도
##먹은
판결
짧
##느라
저건
에이
머리에
기어
##춰
피부
매일
힘들어
조용히
빨갱이
좋다고
씻
##렁
##한게
오지
도와
설치
6개월
우크
##웃
벌어
하여튼
##버릴
돈으로
엄마가
##or
거리
##우고
##없어
맛있
검사
##6개월
##내는
가해자
##ᆻ습니다
지하철
떼
지잡
##겠습니다
쓴
즐
##at
##인들이
##우면
유명
##달라고
##보다는
경제
##률
어린이
읽
그리
있고
##릇
남자들은
##츠
##적이
덕
똑같은
넘어
훨
자유
내일
신상
사망
불법
같아서
##익
더럽게
생각하는
분명
규
저래
제한
##이상
가지
마지마
##ing
##on
##뽕
##정이
##바리
싶음
승
##가면
아들
##셔서
굳이
##빡
##오는
강아
##캐
##인들은
##놓
##내고
##겠지만
ㅡㅡ
인권
않나
똑같
너처럼
##바로
##할때
않는
운전자
너랑
너한테
앉아
못하
살고
떨
성범죄
##하지마
아저씨
없나
미래
##든가
방법
인간들
##ᅪᆼ
##푸
국회
간호
##뒤
못할
##분들
면상
적당히
탄
사라
미개한
##식으로
세상에
##받고
취급
쪽팔
이야기
알려
나대
ㅋㅋㅋㅋㅋㅋ
많아서
십
찢어
소름
뇌가
짜증나
삶
요즘은
##봄
##었네
40
주는
바퀴
억울
이용
모습
놓고
##하다가
##라이
##원이
하는게
폭행
스트레스
나랑
##인의
안나
받는
##졸
했다
##가고
낙
가르
닮
##구요
뉴질
특히
봄
##생이
어이
하다
##인듯
못하게
아예
알지
민폐
쯧
낫지
자리
찌질
윤석
왜이렇게
많은데
했으면
하기
공격
##탓
##ᆼ단
되는데
다행
당장
시대
아닐까
많네
강원도
##넷
##스럽
##착
##정도면
않을까
##씀
거짓말
꼰
부족
걸로
않은
우크라
##시면
앞에
농
##자리
제정신
앞에서
민주당
처럼
신호
##기업
##ᆨ이다
않고
##웅
한심한
##페미
##인간
청주
기억
누군
얼굴에
자동차
고소
##땅
##수록
외모
민식이
커피
취업
협
가만히
뉴질랜드
기업
님
챙겨
놈들은
흔
말해
겨울
##들고
되어
배워
1년6개월
##봉
##ᆮ고
##자나
차별
##ᆻ으니
바보
##찮아
엉덩
봉
##룩
여자애
삐
##힌
악플
목소리
인터넷
##ㅜㅜ
자식이
교통
##ㅋㅋㅋㅋㅋ
끝나
무식한
차량
평소
성격
##야함
한테
##냄새
##거다
든
흘
치고
헛소리
##ᆻ더라
##ve
##자고
##란다
##인을
생활
핑
봤는데
문신
직접
악마
믿고
이딴
심각
식당
거잖아
##만한
이젠
극혐이
데려
##눈
지네
기레기
전화
##액
##ᆻ더니
##자를
성공
강력
##인드
있잖아
기생
피곤
##조선
##었음
to
##어라
##잖
##명이
타고
##ᆻ고
##자도
시간에
깔
##몰
##하던
##생각
때문
##오면
안가
초등학
##빼
해외
##지지
##리게
거다
되게
여기서
이걸
##보기
##장에서
명품
##자들은
저딴
족
페
##ᆻ는지
연락
늙은
##싼
뭐래
수술
좌파
저능
하니
##것들
아파트
##쿠
##같음
달라
그러냐
##쯧
청소
느껴
팩
아쉬
##마냥
공감
간호사가
놔
좋을
##이라니
##는것도
##쩡
찬
죽는
##진국
에서
30키로
흙
##뇌
아나
맡
있는거
신기
똑바로
옥
단속
물건
광고
ㄷㄷ
인구
말은
내말이
애를
없잖아
꼬라지
##메라
##둑
버러지
##러워서
##핑
가게
##국민
봐야
책
팀
잃
##힘
안된다
딸배
훨씬
효
조사
자연
싶어서
친일
아무것도
쯧쯧
어머니
잘라
노숙
부끄
엥
박아
잘생겨
뚜
그대로
버려
사기꾼
윤석열
가장
수업
##웃기
##축
하시
가격
##까요
##상도
불러
빠져
이성
##하겠다
##ᆨ이나
여자랑
목숨
##ᆻ구나
눈물
멸
숙
쏘
##ᆷ이나
##먼
상대
어른
##염
아래
##겠네요
초딩
##새끼
재수
한남들
##납
언론
달려
보면서
살기
아무도
폰
반대
##숭
##탱이
##슷
쉽게
the
이혼
저도
니들이
걸린
스스로
실력
30km
갈아
##촌
##하라고
##운데
등쳐
저번에
저능아
똥꼬
##똑
##이라서
##더만
실수
느낌
##차선
징역
죄다
뻔뻔
##어리
##밀
##따위
##슈
안해
##nd
##할듯
모르겠다
15
##99
##대한
없다고
니들
결과
비싼
건지
더럽
##었을
정도로
자주
전문
##구로
죽은
떨어져
던
길거리
##ea
한데
니는
소개팅
없으면서
오지게
##있네
쳐다
나오면
##륜
포기
##으러
바꾸
개판
##든지
##들에게
흉
멀쩡
##기사
##왕
##쳐서
불쌍하다
팩트
##었어
만드
도망
집단
있어야
옆에
헌
##멸
말씀
##질러
견
##쯤
가야
더러워
10년
아마
##국에
개나
##같다
존경
뛰어
마지막
컨
##객
##거임
시위
먹으면
바퀴벌레
##나마
##는거임
봤냐
본인이
련
개인
ㅋㅋㅋㅋㅋㅋㅋㅋㅋㅋㅋ
되고
느그
법을
뜯어
##이래
좋지
비슷
푸
널
밖
묻
##분이
가고
지내
시비
##었나
##ᆨ시
저지
인스타
무기
재밌
한녀들
##셈
들이
응원
꿈
##꿀
##줌
##조사
오늘도
최소
해봐
##하지만
찍어
엉덩이
##ᆨ이야
20대
형량
어울
그러고
선택
열등
##또
하잖아
일하는
반성문
##하신
다이어
대신
##환자
바랍니다
##ᆫ드
##널
남아
유전
한국말
어딜
얘는
##까봐
답이
유튜브
이쁜
옮
생명
고양이
##시켜야
만드는
돌려
세상이
##is
이것
##자식
##했을
점점
하여간
싸이코패스
가자
짓을
한심하다
상태
##한다는
##시대
마약
남자들이
활
##ee
##하던데
차가
문화
예뻐
좋은데
##복을
##시길
마인드
생각하면
의미
인간들이
역겹다
흙수저
하늘
##였어
않을
배운
##하는거야
다이어트
##이니까
아니잖아
##력을
놀러
면허
##부로
##수있
많음
얼굴도
손님
환장
##ᆺ다
가수
갔다
그러지
걸어
키워
이럴
##드리
모르겠어
일본인
국회의원
##털
##는다고
##였으면
##졌네
우리나라는
##싶다
일본이
##넣
무서워
##하라
##진짜
##룹
##맞아
춤
몸이
소리를
##팔이
##ᆻ네요
##지어
##지역
##으라고
바다
말로
부르
주말
##져야
##없네
받을
##선수
ㅅㄲ
##ᆯ러
나간
한남이
잘해
##때마다
##ᆯ라
예의
하지만
##다니는
착한
##하네요
범
우크라이나
##떡
##es
##하며
##걸로
##도가
전혀
##들이나
기회
##는거냐
하려고
치킨
60
##뷰
일도
##장에
강아지
블
##지네
##어난
모양
모텔
##듣
손가락
##있는데
##나면
고통
##성애
입을
불만
친구가
##하셔
노답
나라에서
줄어
##롭
시골
아니라고
##확
##처벌
실제로
무섭다
##리냐
조센
##ㅡㅡ
가득
날씨
마음이
지잡대
##여자
##붙
애기
##차별
받은
싫으면
##ᅮᆼᄏ
##듯이
감옥
영어
능력이
##가능
어릴
나라를
##떨어
납
경우
##군요
##효
그것
##게요
못알아
버스
감성
꽃
출근
극혐
##겠니
##제한
##혐
소리야
##지마라
듣고
유튜버
##놀
진상
뭐하냐
눈에
죠
##윤
작은
대단하다
둘이
싶은데
불안
##했던
치료
거기서
##ᆸ시다
이리
##려라
인기
갖고
##덜
##가가
다를
대깨
누나
워
나쁘
보통
먹은
간다
위해서
티비
싼
오랜
좋겠네
##되고
할배
##었다고
##프로
놀라
등골
##ㅉㅉ
있으니
말투
무지
하는지
##층
##사를
자빠
##간호사
##보이
주인
예전
걔는
어찌
카메라
휘
##풀
##ᆻ겠지
##야겠다
나만
안조
##했대
이런거
괜찮아
##둘
##만도
오는
##ᆨ이지
##던지
##따라
##떠
저는
시원
안하는
환경
격
힘들다
##뭐
##었다
들어와
본다
꼴보기
역겨워
석
발전
##ᆻ을까
##쓰레기
큰일
화장실
싹다
스타일
##지않
나아
##델
돈벌
##공개
놀아
##ll
가라
가진
오토
도움
있을까
##균
##시오
되나
난다
##돌아
##칼
잘하지
않음
굶
이제는
##협
꼴페미
풀어
##팔아
##30
##ᅡᆯ아버
##했지
언제까지
우리도
헬조선
래
##텅
하던데
자존
##ᆻ어야
것만
미리
때는
도태
논란
촌
ㅅㅂ
그저
없으니
##맘
##보내
부탁
##장애
감독
들어오
##풍
고민
버리고
도둑
동안
##온다
12
깡
##가족
너같이
대충
##장님
##스럽게
걸러
한국에서
똑똑
대단한
지나가
감사합니다
어이가
##쇼
시민
돈은
입에
##ᅮᆼ쾅
so
##있다
것이
풍
##장을
유행
사냐
##젠
정책
##ᆨ이네
한국인
##줄게
##껏
겨우
문재인
##항
저녀
위한
급식
##컷
##욱
##ᅧ서
##지로
저걸
심지어
##싫
지도
애는
##치가
주면
땐
우리집
티볼
핑계
너나
같지
처먹
##이프
지난
있더라
인종
만날
모르겠네
달고
냄새가
##찐
아침
대화
살면
비교
걸려서
난민
##싸개
##는건
##자체
없으니까
대선
전세
##디어
따위
왕따
5년
지옥
같네
인성이
##ᅡᆼ비
지구
있으니까
##스러운
까지
순간
##it
나가서
공산
일은
무단
##저리
##킹
정신나
애들도
문제야
끝까지
##블
##었는데
전기
선동
쌉
##슬람
거울
##렴
밤에
##수에
##준다
벌금
쟤가
술집
후회
난리야
케
##빈
##갑
죽이
##졌어
##었냐
화가
서민
##뉴
##ᆷ버
개웃기
유럽
##싱
##념이
입만
##매매
새벽
죽어야
틀딱들
##뜻
부대
##문제
##충이
##맨
사이코패스
##움이
상상
황
##줄까
뒤지
분위
웬
의심
데리고
프로그래
텅
##시에
##구역
생리
고쳐
##비가
직원
쥬
##라니까
##아님
식으로
딤디님
낳아
기부
개그
유지
##특
설마
##벅
##ᅪᆨ
##드시
어떡해
in
할아버
##똥
그치
놓
##애들은
##없고
##두고
허세
두고
한대
일베
##일까
고작
당해
##망이
##삼
##치면
돈만
싸지
같아요
관종
파는
크게
외국인
##총
##하길
##김
입은
구속
확인
압
마냥
인증
근처
정부가
##댕이
##77
##해지
인도
주차
##말로
##했냐
##했음
##경제
##거냐
보이는
많더라
속이
인생이
오토바
##주지
##하는건
##원에
##었지
##없음
##업자
교회
백수
웃겨
이미지
광주
쌔
##춘
##가요
##아닌
어우
마찬
여자를
죽었으면
##ᆻ다며
##었던
뭔지
살아라
쫌
옥순
##에만
안됨
검찰
가끔
차를
동남아
브레이크등
and
지겨
##하는지
그래야
##른다
치마
관련
쓸데
느낌이
##랑은
유치
##때는
인간은
판단
쪽바리
##왜
##리도
##역이
##였는데
한국은
정신이
윗
질질
일부러
내용
할까
타이어
함부로
가슴이
클럽
있습니다
잣
##셀
선물
자기들
꽂
가까
그러니
오면
##버린
##히는
첫
근무
##혀서
단체
용서
맞음
##킬
충분
끌고
살이
##년이
##있냐
잡고
잡아서
##인가요
##ᆻ나봐
폭력
무서운
닭
부터
생겨서
컴
흥
진세
##바닥
심한
추천
커서
쓸모
쩌
##ᆻ니
##ᆩ어
##이들이
##갖
##하노
진정
##치기
죽고
감정
어째
죽어도
##혈
##스럽다
##봤어
##분에
간호사들
##놈들이
밀어
##듬
하세요
##내서
##ᆸ니까
##직이
해보
왤
수사
##긋
한국에
막아
박탈
##하는거지
무섭
역겨운
잘생긴
##드려
생각은
##땐
성적
##횡단
지금은
확실히
##ᆺ도
##멍
그정도
지껄
말만
생각도
오늘은
그렇다고
##사람이
표현
ha
##가다
내고
##질이
##때까지
##겠다는
처리
나이가
어때서
죄송합니다
루
룸
보상
개꿀
물고
명복을
##다리
나름
잘나
주민
나라는
1도
##ᆻ던데
##이크
##다녀
시장
##작업
몰래
현대
후보
징그
만들고
쎄
##짱
##라스
모를
빕니다
##했나
어쩐
##종일
쿵쾅
혈
버는
취향
##한거지
갖다
아픈
잘하는
우울
상인들
사고가
웃기네
마찬가지
##릭
안들어
기술
부모님이
##랴
입니다
공짜
군인이
조금만
낙태
부자
여자도
##물고
칼로
꼰대
16
상대로
동생
얼굴은
##프레
약속
##시키고
정신나간
##녕
시청
무뇌
얼른
##배우
##해주세요
투표
##흐
##쓸
안쓰
##사일
것이지
피싸개
성매매
일찍
코스
출산
##하시는
밝혀
##77ㅣ
땡
##나네
##기면
짓이
자영
당당
맞아야
##련아
빼고
표정
2년
##re
##치네
##ㅋㅋㅋㅋㅋㅋ
맞다
따먹
원숭
깝
시간이
##빨아
##me
##의식
대표
노동
##놓은
##친다
매번
동성애
살지
센
운영
만나서
##너무
##끈
##하겠지
핸드
##보호
고졸
의무
##딱이
갑질
라고
안타깝
노인네
사용
사람한테
맞을
##방에
무서워서
##끗
##혜
##이든
하게
먹여
##할수
##내가
소추
타령
새끼
썩은
뜻
샤
##ᆺ어
남녀
##통수
신입
아버지가
lo
모델
우리는
쳐먹
데이트
##추행
괴롭
아재
왠
대박
잘난
젤
과연
물론
관계
올리
능지
월클
대통령이
아깝다
캣
##품이
텅텅
콩
##떼
아닐
##되는데
##속도
뚫
녹
미치
##할거
와이프
누굴
발정
얘네
뚱뚱한
훔
##ᆮ아
##이팅
잊
저희
대해
##애들이
나라에
직장
선생님
무단횡단
콘
있다는
##궁
중고
참아
쉰
사회에
다시는
하루종일
창피
짤
##샤
##0년
##ㄷㄷ
##으신
갚
마법
##기나
하셔
정의
대기업
뭐하러
재산
을
보인다
대놓고
많냐
드러
했지
편하게
나온다
조센징
pc
발아
##보도
##되지
##한테는
선배
호구
항소
##볼까
주변에
그나마
넓
보소
같던데
맞춰
성추행
좋아서
있어요
다닐
##영상
죽어라
된다고
왤케
향
##ᆻ으니까
##칙
곳이
싶으면
하나같이
박살
불쌍한
금지
못해서
##하지말고
뒤에서
##관계
변태
마셔
##스러워
입장
##징어
##쩌
오타
개가
계집
놀고
진심으로
중요한
거라고
죽일
소문
양심이
국민들
당연한
##검사
티볼리
한마
상식
일본은
##이들은
거겠지
되잖아
움
##ᆻ는
##하더니
##서는
##리는데
##들이지
##샛기
빠순
생겼네
충격
흑인
맘충
가정교육
##지나
##을듯
한명
그러다
대중
만큼
받아서
놈은
쉴
듣는
기생충
##좌
젖
모아
다닌
되겠네
과제
##예요
중국인
적용
##딸
##틴
마시
마시고
뭐만
치는
##이지만
넣어
규제
핸드폰
##퓨
##이란
##여도
옷이
##봤는데
생각함
배고
##학교
빌려
짝
저리
##대를
말자
뭐하는
야동
멈
정신을
과거
강남
당연하지
축하
잠깐
쌍용
쏴
##ay
##지에
앰
기준
쓰면
살아야
시켜야
아이고
중환자
배려
##있음
나오지
##받는
옷을
대학병원
걔네는
닌
##뮤
하는거야
##들임
대로
대구
주식
그런지
생각만
##첩
국뽕
지금까지
쫄
진짜로
##옷
봐봐
칭
싸우
경험
힘드
강제
개빡
##되어
##르면
했다고
넘어가
만나는
돌아다니
긴
##부가
애니
##정을
##반도
연예인들
마음에
업소
싸이코
프로그램
뚝
쑤
하겠지
시절
것처럼
##비스
따뜻
판새
베네
증거
##잇
##엄마
##으셔
하던
##겠죠
##국가
##간에
##픽
반드시
술먹고
짱개
보여주
여경
기도
만난
##낼
눈알
##달라
웃긴
편의
죽여버리고
200
종교
##짓거리
겉
하라고
같냐
##년들
알았어
심하게
빻은
만나면
커플
##그래도
##고싶다
##드립니다
##보니까
##수준
##낸
##화가
남자랑
평가
저러고
무기징
오랜만에
##하교
때까지
국개
##님들
##하다는
치매
있어도
욕을
한녀들은
높은
덩
이전
진작
##겠나
걸까
가족이
지들끼리
투쟁
초등학교
끔
##ct
걷
일상
국방
집값
영원
이제와서
욕하는
뼈
어케
##한대
##같네
손절
정도는
그만큼
틀니
군대가
깨끗
##컵
your
##팔아이
오토바이
코스프레
##부모
##치지
야구
##동네
##육이
##있지
과속
알았는데
발생
실패
나오네
##잡고
믿는
##ed
갓
기름
##학생
받아야
끼리
값
좋게
보자
##들이야
##범이
##ᆻ어야지
전형
방금
인간들은
하지말고
힙
##잔아
평소에
##치게
니같은
제목
고기
성별
지금도
걔가
특징
지역경제
해주세요
밟아
하다가
한강
같으면
개발
##졌다
산다
어쩌라고
어쩐지
##쇄
##튀
대바
드디어
##단다
성괴
예민
치워
어디가
관상
귀찮
기분이
튀어나
하겠다
보수
부럽다
당하는
실화
작작
필요한
착각
##리기
가방
여름
부럽
미사일
때부터
머저리
발로
##해야한다
관광
틀딱이
답이다
연예인이
접종
##ᆫ터
##리카
갔는데
##마자
심해
##작용
죽여야
몽
한두
없는거
생각하고
어떻게든
그렇다
##시켜라
인터뷰
중환자실
##렬
##국이
필요가
듣기
미안해
##가야
##리나
나면
입는
##것들이
##당한
발언
욕먹
##느니
페미니
##아니냐
##ᆸ다고
##로는
마세요
등하교
시키는
색희
##둔
닦
못하면서
##타이어
싫은
생겼어
테러
아닌가요
달아
##지원
익
대리
못하면
되는거
##동산
엠
##겠어요
지능이
훈련
졸업
##인게
마누
남성
구분
##en
지는
##보자
##스가
##르게
##ㅋㅋㅋㅋㅋㅋㅋ
##말을
##이라면
힘내
태어난
오타쿠
##나와
빙
##것들은
경기
남편이
민식이법
##ᆫ트
##ᆻ노
말라고
무너
뭐해
개념이
##차가
예능
역사
25
##래도
##보드
##였네
남자한테
당한
뒤질
다니냐
커뮤
떨어지는
씹
홍어
for
##ᆺ고
가기
##대에
##주도
해놓고
부작용
뒤집
열폭
국민의
합법
흡
키우는
김치녀
닮아
즈
##톡
이사
주먹
##저히
한국이
##물이
잘못된
은근
메갈
투자
열등감
##가라
얻
##시네
너보단
대우
##모양
방역
확진
짱깨들
##아리
한다는
말라
기가
기자
개빠
살면서
##놈들은
급발진이
제설작업
가난한
2찍
##뷔
아닙니다
내는
##구려
##스테
오팔아이
남은
##히고
주워
많고
전체
소비
입으로
##있고
설명
낭비
##지키
##을때
안하면
말하면
##되냐
##줘라
한남들은
전세계
##몬
이슬람
아들이
##깅
##랑이
주세요
##성을
모르겠
선진국
달라고
캣맘
앵
하는거지
싫음
몸에
기다려
##웅정
친일파
##하여
하더니
보는데
사람들도
오징어
##수를
문제지
샛기
폐지
덕분에
가르쳐
##ᆸ시고
가는데
마려
안나오
있긴
무개
부러
덮
소중
##팬
찢
##사람들
끔찍
##거라
안에
소시오
스토
##잼
새벼
민족
꽤
플
##ᆺ네
##깔
넣고
것은
##일듯
제조사
##셉
싶냐
##점이
도끼
병원에
줘도
져
##하겠네
적이
너의
인사
애도
요금
##우니까
고아
봐주
안되지
패고
추방
어떡하냐
ㅋㅋㅋㅋㅋㅋㅋㅋ
헬스
##둥이
사라져
협박
할아버지
품
##ᆸ은
이후
그쪽
##인도
##인거지
안와
##만이
냅
못배
할매
##했잖아
뱃
장병
다니면
열받
##놈의
##맞고
##짓을
##ow
##가도
##리면서
너를
##스터
##겨서
많지
살다
둘다
늦게
신상공개
홀
##이도
##나고
있게
보험
진지
낼
있는게
##따구로
##련들
정상적인
##이로그
##ᆫ다고
##이터
얻어
나를
낳고
사업
했네
##정권
##되서
때리고
일본어
강요
아이들
멀쩡한
저녁
발악
##살아
##ch
자고
##상에
근본
있었는데
양구
생겼다
##솔
뭐니
패션
인생을
운전을
##시간에
용돈
훌
ㄴㄴ
##자로
우동
죽으면
성인
##살이
30대
두번
힘들게
월드
라면
끼고
it
뭉
##압
시국에
##겠노
내로
##장은
##하지도
빨대
몰려
몰카
##많은
무능한
밖에서
활동
##ㅅㄲ
나빠
한거
부동산
버티
배가
법은
올림
데뷔
만들어서
좌빨
왕복
이기적인
같더라
우선
스시
엔
뒤에
없어요
보이는데
벗고
징징대
##뿌
자위
바쁘
##짜리
대상
##같으면
왔어
##하다니
좋아해
했냐
몇번
이번엔
##ㅠㅠㅠㅠ
못생겨서
무지성
띠
사는데
지랄
말할
되니까
여자한테
고등학
##차는
한국어
간호사는
떨어지
판사가
줘야
교육을
편의점
옹
##쎄
##어날
##사단
##더라도
멋이
상처
금방
그룹
##기들
맘에
좋고
부들
요리
매국
분들
##ᆻ지만
##사들
부정
및
전자
##남불
윈터
된장
잠재
지나가는
대깨문
500
턱
##쩍
##한번
보임
못차
남들
간첩
있는지
경상도
섬
안되나
부모도
했잖아
빻아
작가
##ᆻ을때
피해를
온갖
무기징역
탁
##큐
##1발
##이네요
기계
ㅋㅋㅋㅋㅋㅋㅋㅋㅋㅋㅋㅋㅋㅋㅋㅋㅋㅋㅋ
차에
##장병
고인의
싶지
##년도
칠
손웅정
서비스
망할
번호
택시기사
##여야
##바다
차려
주작
얼굴을
싸구려
섞
최근
국민이
뜯
점심
공무원들
쫓
교통사고
##くな
뭐라도
좋더라
##일에
죽인
##교통
빨고
존중
퇴근
희생
걸리면
불륜
구역
모르냐
서양
허벌
ㅎㅎㅎ
모자란
염화
내로남불
1위
##쏠
지적
##원에서
고딩
죽이는
도박
##년에
장기
강제로
아무나
##인이랑
노숙자
컨셉
분위기
##곡
안그래도
싶더라
유난
국제
위로
싫어서
횡단
##천히
존못
레깅
육교
##뽑
##대표
그러면서
##테니
공장
섹시
##애가
평균
존나
##꺼야
개웃기네
충분히
베네수에
##ᆻ거든
##이러
##드립
##할게
생각보다
당하고
반응
꼴이
한번도
늙어서
레즈
남친이
왜이리
##많이
훈훈
숏
##껴
##끌
##가봐
나을
거랑
##해져
무죄
남한테
죽겠어
처먹고
놈아
꼴에
했던
설거지
브이로그
짧은
인종차별
wh
##얘
##혹
##id
##이에
이정도면
아오
보도
애랑
사람죽
##수는
차리지
그랬어
그래봤자
소속
거지같은
타는
있었어
미국이
세금으로
여친이
새벽에
웅
##쾌
##쓴
생일
부산
살려
비난
##님은
돼서
일본에
참고
##해야함
찔러
약간
질투
##벨
##턴
##으세요
부디
##텐
##조차
예전에
동탄
우리나라도
##판에
공부를
##퉁
##나가
##해주는
하겠냐
##여행
무어
맞은
맞냐
맞네
##녀가
선거
싸패
현기
천천히
믿을
상관이야
##묵
##팡
##서야
##리에
지들은
한달
##였다
정작
노출
##빌
감히
##줘서
학폭
문제는
분노
살아서
죽여도
임산
휴가
##くなくな
##리는거
바닥
부분
만만
스포
##군단
신경쓰
낮은
슬프
##칼슈
마누라
붕
##이긴
##였음
##으로는
차로
좋네
##힐
게으
음료
계산
##놈은
##련이
불쌍해
##캠
쉰내
##ar
##석이
##로서
##러움
사서
없습니다
일제
됩니다
만족
국내
심하다
올리는
몇년
한번만
뇌에
챙기
능력도
소시오패스
레깅스
##뿔
##이를
너보다
남탓
공익
국짐
##행위
후려
급발진은
##한거야
언젠
짓거리
저럴
옆에서
정신차리지
sns에
잠재적
자라
보러
없더라
일으
화이팅
변호사
11
콜
##ᆺ는데
##❤❤
이뻐
보이지
못함
오바
##전드
도시
도움이
##없지
됐어
##남자
외박
딱봐도
멤버
업무
##9999
무개념
뜬
##뚝
##함이
##럭
##인척
안내
있겠냐
##주냐
뭐임
기어나
먹었
불가능
알았다
새77ㅣ
몰라서
소리가
최악
글러
잼민이
고마워
tv
##ᆿ히
##나도
아니네
##보여
##일을
주장
구걸
동양
얼굴로
##살인
역대
싫은데
발작
똥남아
끓
##인가봐
취미
##잡아
힘이
어쩔수
청주시
굶어
칭찬
안좋
성욕
키가
##륭
확률
짜증나게
속도제한
##율이
밑에
자영업
염화칼슈
그렇고
요구
싶을
비하
##질이야
집중
##있으면
학원
재밌어
떨어진
으휴
리얼
베트
썩어
멸치
is
그림
아내
안달
보행
노는
돈에
먹지
##적이고
##저기
눈을
##ᆻ으면서
애들한테
##관이
##받을
꼬라
##ᆻ을텐데
사회에서
거기에
찾아서
전형적인
우동사
##ᆻ구만
##대고
있구나
##같아서
자기들이
올해
쓰레기들
빠진
엄마는
군인을
정부는
효과
쉴드
##ᆼ이
##아냐
너만
##법이
머리를
머리통
아무래도
후진국
붙어
다음에
##따위로
##쥐
##op
##거려
##으시
##한지
##으로도
곱게
때도
비정
따먹고
강화
자식들
어려운
맘대로
##쥬
##들어서
아는데
##요금
있겠지
왜케
정당
정확
옳
먹어서
많을
전과
빚
애들을
좋아요
깎
찡
적어도
갈래
##불안
##정도로
골빈
##아니라
증명
초등학생
슈
이것도
시집
왜그래
미성
덤
더러워서
않게
재난
##위에
땀
백퍼
국민들이
##아니야
체납
맥
##웨
##톱
##해놓고
대해서
오크
##왔어
들으면
##있나
몸뚱
생겼는데
아버님
레전드
비싸게
li
뷰
##ut
##작이
##한건
조롱
성격이
##선을
킹
막말
연예인은
옆집
뽀
째
삭
닥
##됩니다
##전히
왔는데
예수
매력
##윈
몰아
취소
##끝
새로운
잼민이들
##콘
이재
가치
마주
남이
개패
솜
세대
쌓
살인자
음주운전은
귀여운
한마디
냉
##st
##들면
가짜
##주니까
해당
같습니다
##상태
좋으면
##준다고
얼굴만
결정
뺏
병원에서
클라스
하지마라
베네수엘라
19
##겁니다
마다
시킨
##제도
##무사
죽음
셀
화천
운운
잡혀
아이가
##소리야
국민을
##천원
미국은
##희롱
만들어야
##습니까
안타깝다
방구석에서
즐거
##릭터
pc방
1억
##갱
##콩
##않아
가둬
제작
고려
뱉
됐지
들어온
계회
뽑은
20년
사장님
70
어머
##면허
##기전에
가스
있던데
우린
##ᆻ다는데
습
감형
##돼서
파악
##ᆻ나보네
한심해
탈모
자랑이라고
시끄럽
영원히
끼리끼리
##ᆫ스
##턱
안경
같애
##상을
##그리
##었대
성희롱
##충들은
##빠진
##셨네
없어도
완벽
여기가
##해주고
택배
80
##고생
어깨
나ᄂ
##인생
시급
잦
해줄
뭐든
##일은
만져
때가
손해
##부터가
욕심
우리나라가
##싶어
탈출
임산부
털어
차리
받으면
나옴
##놈아
##했다는
빨아주는
아프간
##덩어리
##앞에
꽃배
훌륭
##탱
나은
거리는
모아서
조작
##사건
보조
##랙
니도
만약
들은
알겠다
벌고
사회생활
씌우
쌤
##헤
##oo
낳은
##럴
시속
##주에
무거
##신이
잘하고
우스
##밟
좋겠음
##밍
안될
안되냐
출연
역겹네
시키고
옹호
송
혜
##달아
##홀
##하려
##야말로
다름
자국민
차이
차도
##녀들
연습
없는게
했을
길에서
가족들
빨아먹
괜찮은
루저
미성년
둬
쌀
##👍👍
정보
##차로
##금지
남자를
집이
##받은
취직
찍는
하루에
##시키는
ne
##리니까
한참
제조
먹냐
먹으러
##없게
구경
민간
페미들
귀여워
##링
##되는거
##봐서
않다
않는다
나락
어떻
아닌거
웃음
함께
돼지가
티내
학교에서
끝내
##해주면
##찡
캐릭터
흡연
매국노
##리로
자본
없다는
바빠
같네요
저런거
##없어서
분리
##꺼면
천박
터져
트젠
생김
굴러
##🤣🤣
##기지
해요
정리
일진
##버리는
노가다
들어서
막상
날려
결혼을
떠나
##버릴까
안좋아
##ᆺ지
##라며
긁
##리다
안맞
##한테도
소용
신발
##속에
스노
다니지
몰라도
술을
중국은
언제부터
방송에서
##책이
잔소리
깡패
##ᆿㅋㅋ
##도소
##하겠냐
가오
모가지
안다고
대출
대머리
##ᆻ어도
것을
##소수
할수
건물
##빛
상종
예비
어디에
뒤통수
만나고
찍고
살인마
북한이
교수님
자존심
훔쳐
염화칼슘
##뛰
##시절
##한민국
모른
##회사
매장
모르겠음
에어
나오냐
멍청해서
피해자가
군인들이
끌어
##퓨터
꽉
##가를
##섭
나불
거네
여론
##주가
바라는
바쁜
##겠더라
##덤
버리
##잖아요
공공
##인데도
##방송
싸움
간호사를
##박스
작업
두꺼
여기저기
##사람은
처벌을
최소한
##뇨
##이에요
##야해
##한가
잘만
맞추
할말
들을
##분들이
역할
싸워
##줬으면
술마
한남은
골목
낫다
횡단보도
껴
##라는데
##자랑
하도
한반도
말하는거
일뽕
##그룹
어떨
드립
##린다고
예술
##능력
물려
앉아서
각자
누군지
생명을
4년
##뱅이
이빨
어지
##나보네
##자야
가야지
##사나
있대
자전
##부는
##바ᄁ
더럽다
##좋아
집구석
예산
재판
모르지
실망
코인
꼬시다
똥만
엄마한테
단순
##독교
골프
독재
오지네
공산당
##리스
사법
##볶
##버리면
좋냐
##비는
재벌
감동
단어
처벌이
회사에
##폭력
으로
예쁘지
양심도
컴퓨터
진정한
를
##ᆻ죠
##el
##닝
##릿
시1발
안다
말든
왜저
수십
##는거다
그래놓고
##화를
머리는
쓰지
##것이
양반
망치
허락
쉬운
라는
아프리카
폐급
유치원
3년
##ᆻ데
##말아
##하하
##야한다
자업자
말야
말이지
못하냐
사람으로
여자애들
곱
##먹으면
##성은
살다가
소식
##얼굴
지원금
십알
##략
올림픽
뻥
가도
사라지
##왔는데
중국이
티가
##아니고
던져
##팀
시체
있던
대접
못가
##부들
##버린다
##그런
생각합니다
비위
유부
##머가리
외노
카드
경찰이
웹
무엇
of
쌩
펴
##땡이
##ᅪᆯ
이민
##암
나지
나타
말한
제주도
고양
맞는데
살게
##레반
남자도
##본다
입원
않으면
역겹
먹어도
회사에서
지역상
사이비
미쳤다
지키는
대중교통
갱
##앵
##완
##릉
##논
##답게
##어야지
하다니
바란다
개선
버릇
만취
전국
비용
##안하고
##없는데
##처리
망신
분이
정치인들
잔인
헤어져
괴물
##흡
8군단
띄
빽
거는
모지
자세
노친
더이상
##세대
##ᆷ임
##좋은
군생활
도덕
됐다
줄줄
모르나
일본인이
망한
허리
친구들
멘
대학교
독립
숙박
찡찡
##le
##학이
아치
하던가
보냐
##일도
곰
알면서
##줘야지
현재
짭
결혼할
잘못한
금수저
총살
팔아서
love
실화냐
뒤집어
꽁
눌
##가면서
##시킨
##사도
있으
애국
전역
빠는
##쓰고
군인들한테
##찔
담배피
할머니가
육수
깜빵
##지원금
자전거
su
즉
##ᆻ길래
##떨
##뜩
##해봐
##해지는
모기
모름
봅니다
진행
차는
##방에서
##물어
세상에서
캠
뒤졌으면
여자친구가
길거리에서
노친네
쏠
##껀
거에
여초
말세
부담
##차량
집행
##통이
재앙
탑
##됐다
쓰레기같은
민원
역겨움
이러니
써서
방송에
헤어지
등쳐먹
더럽고
##ctv
뻐
썸
헉
##즌
##춤
##쪼
##하죠
마술
안할
안함
##대면
자격이
일주
수입
죽어나
주문
유일
##운동
알게
엄벌
동의
영업
손으로
##머리가
##관리
했음
밥을
언제고
순수
휴대
ㅋㅋㅋㅋㅋㅋㅋㅋㅋ
벼슬
씻고
lt
촉
쿨
푼
##도는
##엄
##으려
##들이라
사람의
오르
노조
##ᆷ이야
당해도
##쳐먹고
##계가
있어야지
문제다
꼬우면
했더니
10만원
갈수록
##버려야지
찍은
김여
힘들다고
면회
이유는
예쁘다
비슷한
##붕
##가는데
##해줄
##네ㅋㅋ
낸
못하네
##치를
##박이
주지
알면
##타고
스폰
느금
경쟁
굥
실제
종트
늘어나
남자친구가
여러분
삥
격리
진작에
21
빤
##측
##ᆿㅋㅋㅋ
##억이
거래
##시죠
조만
##려도
오줌
##칭
##밤
##하고는
버릴
중독
세월
화나
##통에
##명을
##위반
발광
빨간
듣보
멋진
##ㅎㅎㅎㅎ
견찰
발정난
스포츠
##이스
나보다
나보고
저급
없게
바래
못하지
##오고
##었습니다
당할
집어
교도소
##몇
우리나라에
쉽지
삼성
지지하는
시대에
cctv
st
##ᆼ신
모여
여태
말하고
뭐고
앱
##정은
고객
걸리
입국
구린
방사
나오는데
이상하게
편집
싫어하는
이러고
##하시고
그걸로
벗겨
슬슬
##좋다
맛있어
극혐이야
##자도생
##킬로
원숭이
탁상
쫓아
ㅈㄹ
##ic
나갈
나대는
저정도면
저질러
##시지
##주민
내리
##그냥
##있다고
싫다고
쳐먹고
쳐맞
까고
사람들한테
##버렸으면
채널
세금을
특별
뉴스에
아프다
멋지
##버리기
밑에서
뽕
##컨
##un
##가네
아기
같긴
뭣
##그로
봐서
##었잖아
걸릴
장면
매너
##줘도
##형이
타이
친절
실력이
본토
관심이
인생은
애들이랑
결혼은
겪
##된다고
높아
##하지마라
17
##궈
##툰
##lo
##니가
여대
뭐지
##되나
미용
버려야
##옴
##오냐
비행
건너
머가
됐네
##방이
학대
외교
호텔
##버려라
배우는
엉망
블랙
흥분
녀
##최
가벼
그러다가
##으로만
생길
수치
##드름
생각한다
않은데
첨
들었어
후배
나이에
절반
장애인이
살인죄
터진
##00원
솜방
스노우
조만간
gt
##컬
##하거나
##니티
아동
나머
젓
##거같은데
아니니까
일인데
모르면
엑
어쩜
똑같아
애들이나
그렇긴
늘어
##합시다
논리
##곳에
90
##뢰
##잠
거면서
짖
다루
있지만
생산
되겠다
수능
좋겠네요
부러워
##ᆻ다면
##소나
배신
줄여
##준표
일본에서
부모는
엄마도
작아서
그만해
천국
##쓰는
합리
해주면
곳에서
행동을
오지라
쩝
확진자
##낙
자란
오냐
##수로
여자들도
죽겠다
살해
소식이
##때도
##때문
##했습니다
##벌이
##배기
올린
망해
새퀴
몸을
날이
틀린
저러는
this
안좋은
단체로
공짜로
움직이
아침에
켜
##흥
##ᅣᆷ
##잉
##가자
아끼
나네
##주는데
한가
##제에
##바퀴
노인들
##테니까
상사
매력이
아이들이
친구도
폐기
말아야지
문재앙
기억이
##텐츠
##이게
##지는데
##고기
##겠구나
기아
피시
할거
섹
세워
하고싶
의견
들어가서
##셔야
허구
운전하는
맛있는
현실은
##고싶어
##취급
##있어서
##뜯
지하철에서
가까이
##콜
##이더라
바이러
말하지
못한다
죽이면
버리는
##져라
군사
##단체
위생
결혼하고
사고를
해야함
작품
##림대
겸
레알
안보불안
사귀는
각자도생
뒤져라
둔
똘
탱
저정도
##거리고
##인으로
사투
##제가
기독교
##바라
소나
할게
하는구나
처박
모르겠는데
심심
누가봐도
한녀는
2030
볼때마다
판사님
은퇴
임대
별로야
주말에
자빠졌네
휴대폰
흠
ㅠㅠㅠ
##맹
##ᆿㅋㅋㅋㅋㅋㅋㅋㅋ
##지냐
엎
##으며
##사회
일만
우와
부활
##말자
문과
발표
추워
며느
박혀
##ᆻ나요
##하시길
꾸미
제한속도
삶을
1등
쭉
쩔
##씌
하네요
가냐
일하고
뭐하고
드럽게
군장병
그렇게까지
경기도
섭
다니면서
사고는
공부도
##빨리
생기면
끌려
우울증
진지하게
계획
방사능
##룰
##틱
##이기
이어
##약이
나는데
##로만
##기판
자국
인데
깊
##수지역
미끄
젠
죽겠네
생각하지
사람이랑
다니고
망상
꼽
군대에서
냄새나
냄새나는
브라
글쎄
사이코
팔고
##께서
도로에
조심해야
극혐이다
이성민
멘탈
ai
껌
묵
이랑
##에다가
##아야
##낮
거고
샀어
##대도
있었으면
보다가
##많아
##원은
여자로
##일본
##그렇게
##내면
불평
##까지는
##물을
뒤지게
나오고
얘가
속상
넘게
청년
힘들어서
that
스시녀
2차
##쁨
##이여
이겨
이정도
##하려는
지자체
마른
마땅
시설
냄
대책
좋음
부장
때리
드는
입으면
##실에
구독
##함을
위에
쟨
반격
알아야
음악
분들이
해야한다
절대로
검색
복지
환자를
잔뜩
##필요
거리두
유명한
소름끼
이성윤
나눠
new
##ro
##이죠
##자마자
거니까
가려
바지
그러네
##보면서
##제를
기어가
좀만
유학
머갈
##것이다
나라냐
영향
싸다
벌어서
반복
음식이
밥먹
명절
이번에도
식민
줘패
나가면
크고
늙어
곳에
홍준표
자신감
일반화
징징거리
랩
##쩝
커뮤니티
비정상
##ᆺ나
아싸
##리만
낚
나가는
거부
여우
여배우
진동
아니면서
못봐
인과
차릴
##미가
맞으면
생각하니
비판
성소수
한국인이
##타령
알아야지
참나
타격
##법을
꼴통
##망신
떠는
##시켜서
브랜드
지갑
봉사
유전자
아침부터
당해봐야
힙합
##맥
##im
##50
##ke
거라
##주라
그러는데
##보임
같고
개를
것이다
버린
피는
##동생
##식을
##트에
##있게
위드
위안
들어갈
##석에
박고
역겨워서
써야
직업이
육아
자격증
##꼽
##가나
지경
있다니
보이네
##상에서
##음이
##득이
누워
외출
까는
살아야지
우리나라에서
똥을
박멸
사람들을
학교앞
이러니까
면접
만들면
##000
트로
##험이
귀엽
쥐어
옛날에
##eal
ch
##핀
##ᅥᆫ다
##자인
##거같아
가성
조폭
싱
여드름
##대에서
해줘야
인류
##부지
수는
##되네
맞게
봐야지
##속도로
##충들이
문제임
본인들
없어져
잡는
추가
넘어서
##하기도
있다면
틀딱들은
표절
어느정도
최고의
감독님
역대급
웹툰
이나라
##아파
나같으면
##한국
사무
사람인데
##오지
##미디
##비를
걸그룹
##있을
치우
영토
과태
최저
이상해
##돌이
##출산
광수
##책임
##ᆯ링
미래가
다행이다
쓸데없는
베트남
24
am
##락이
##났네
하시는
하필
##한것
지들도
보게
아니지만
묶어
잘할
고백
할듯
하는건
##하지않
국산
##트로
줄도
어디다
##등이
다른데
최대
밥도
결혼하면
등처
길고
많아요
죽었는데
천지
토론
담당
억지로
처음부터
떡볶
어린이보호
똑똑한
have
당당하게
국개의원
쿠
##al
##리어
조져
안락
##사에
있니
##의를
못하는데
##생들
개소리
여자만
##오후
그런건
전남
##비도
무슨일
매달
치면
##쳐먹
에효
벌려
외로
했대
길에
##사람들은
답도
퇴사
팬티
굉
오지랖
##띠
##팍
##th
##라는게
##리더라
거세
##요일
##대기
해주는
그러니깐
##구리
개한민국
죽으
주사
많던데
##질을
상권
당해서
않네
근육
심하네
망하는
운전자가
폭탄
떨어져서
토나
잠을
의료계
꼰머
도망가
개나소나
쑤셔
##챙
##아이
##야됨
##해줘야
가식
##인거야
모여서
얌
##차를
맞나
공유
세탁
##있는거
하나만
계기판
평범
귀신
사이에
삼가
예쁘고
년이
뿐이야
뿌려
##and
모습이
마법사
##몽
이라고
겁니다
사는게
##보가
생기는
##밭
##르르
그런게
그런걸
싶다고
할로
생각해서
연봉
##같은거
뒤진
사람이냐
다니네
넘쳐
명예
않았어
이래라
어쩌고
걔넨
##색희
ㅋㅋㅋㅋㅋㅋㅋㅋㅋㅋ
밝히
족속
날아
##하기는
아메
조상
다는
안하냐
여혐
자극
보일
왜그러
우유
부리는
##할래
소설
##조리
##질구
알겠어
나왔어
여기는
환자들
토나오
시켜라
요새는
트랜
웃김
인구가
재밌게
##아닌가
최악의
느금마
과태료
##ᆺ불
##헌
##as
##이구나
잇
##악이
##핵
하수
사지
##겠구만
말지
같잖
일이야
죽어서
주름
살까
할때
봤음
나라로
스페
위협
탐
##따구
양키
##두면
친구야
먹어야
변명
##볼래
된다는
##건가요
100만원
당신이
최근에
자본주의
솜방망이
on
랑
흥민
##홍
##하느라
어리
낯
##기야
##시네요
사면
##대통령
##할텐데
할줄
생각으로
왔으면
건드
한국의
들어간
현금
키보드
추운
중국에서
쟤네는
위험한
에이즈
피부가
흔들
부끄러운
존경합니다
즈그
##ᅪᆯ영
트랜스
뺨
##뤄
##훠
##하려면
어르
거북
##사진
차단
##장면
##우리
##찾
게시
살짝
공주
입에서
재능
구조
자기네
알아듣
원하는
법으로
그만해라
멍청이
범죄를
뽑아서
##별로
폼
정치인
국가가
음식을
안타까운
일반인
깔끔
훈훈한
뻘
쪄
##am
이중
##다운
##도를
##들으면
##십니다
##시설
진실
##바가지
##겹
##원들
죽지
많으면
많다고
얼어
생각할
생각하는데
상인
쓰냐
국힘
##했으니
눈도
근거
참견
머리도
##됐네
이번에는
욕하고
패배
등록
잘못이지
학교에
대단하시
의료진
권력
푸틴
페미니스트
꽃뱀
be
me
##퇘
##ᆿㅋ
조합
보다는
##맛이
##보세요
대처
더듬
싶나
##었구나
##땜에
##색이
정신머리
이런데
싸고
손에
과학
뒤로
안되는데
등등
나왔는데
멍청하게
포장
질문
음주운전으로
탈레반
##언니
멀리
시끄러워
##놀이
월드컵
##질구질
팍
##ᆸ신
아르
##자의
나무
##한척
##인건
오피
오죽
좋던데
##그릇
##년아
구질구질
싸게
##혁
외제
망쳐
까불
떨어질
떠나서
##이었는데
경찰서
가능한
머가리에
소름도
아쉽다
재난지원금
깔아
##지니까
이루
##다니까
##독이
##섯
##거라고
모른다
모쏠
다신
자는
한림대
아니에요
요양
할래
##위로
자기는
##집에
쓰레기를
##공격
##싶네
찍어서
통과
사이즈
어렵
헛짓거리
깜짝
와꾸가
태어나서
제정신이
##몰라
1인
맹
##ᆨ스
##pp
##라인
##들끼리
##아도
##아빠
##한남
시행
##까진
노처
##장도
고급
##세여
##몸
##봐야지
피빨아
군바리
입대
상생
불매
##실에서
연구
모르면서
영식
##길에
짬
시간을
처벌해야
형님
기사가
순진
저기서
꺼내
보호구역
##ere
응원합니다
할로윈
##🤬🤬
##이자
핥
가다가
사니까
시선
안녕
##무시
수밖에
유리
집은
받지
눈탱이
인간의
손목
애들만
##법은
했나
파탄
필수
한남들이
##입고
설레
믿어
영상을
몸매가
마지막에
티비에
##뉴스
한두번
뱃살
##푼
##곳이
이지
이태
##하실
##하겠어
그놈의
아가
거니
거나
##시나
갔어
사례
##사랑
밤새
무료
애교
것보다
생각없이
입이
국밥
한국인들
##줄래
의사가
손이
안되면
안됩니다
강의
백인
30으로
멍청아
온다
##했어요
아까워
시키면
년들
예쁜데
상황이
바람피
낳는
냅둬
냐
앙
##ᆻ겠냐
##가루
아다
##아프
나발
##해질
##기라도
안한다
자녀
내년
대응
애한테
제사
##할지
##말이야
도입
같은거
##겠다는데
어디로
추억
중국인들
찔
태워
엄청난
낫겠다
어렸을
강력한
##젠더
개그맨
덩어리
윈터타이어
녀석
어르신
툭
##톤
##삐
##가냐
##로운
사주
사장이
안하지
해본
일에
개쓰레기
만화
##체가
처녀
##물에
감당
감싸
##행정
의지
의문
위수지역
따먹어
##달라는
쓰레기가
허벅
틀어
나이도
##올라
예쁘면
있나요
궁금하다
카페에서
여자애가
바닥에
my
##낀
##ᅴᆫ
##ime
##eo
어그로
##으려는
##삭
있는거지
내보내
대형
##수술
남겨
좋겠습니다
미세
##르지
게다가
입어
엄지
##위해
위반
들어가는
부모한테
망가
응급
등산
환불
악질
게임을
가해자는
아파서
기본적인
##쟁이들
가지가지
성범죄자
간호조
가르치
부끄럽
부탁드립니다
꽂아
못배운
피시방
##ts
##러서
##렸다
##상식
무리
니들은
먹으면서
봐줄
입맛
##이라며
재설
장례
요즘엔
매우
계란
계약
넷
##박탈
달리
며칠
취집
그만하고
완전히
파오후
딱히
##사람들이
한녀들이
쪽쪽
##꼬리
가해자가
조심해
퇴물
개념없는
눈물이
형량이
경우가
걸러야
지겹다
6차선
##캉
##게임
##나지
##기간
##사로
아니니
개정
맞는거
##소가
득
공정
비호
##질하는
돋
##년은
##때부터
집도
나라의
감수
반반
언어
##감독
백마
인생에
운전대
귀찮아
죽였는데
202
자식을
통제
##돈으로
여친이랑
무시하고
##ㅋㅋㅋㅋㅋㅋㅋㅋㅋㅋㅋㅋㅋㅋㅋㅋㅋㅋㅋㅋㅋㅋㅋㅋㅋㅋㅋㅋㅋㅋㅋㅋ
이기적
힘든데
주인공
re
##뚜
##해진
##인걸
사나
지배
다가
다같이
##렸어
없구나
내내
##무새
같으니
사람만
##바이트
##세상
먹기
만한
그래요
##었는지
성병
뭘까
멍멍
등장
한남충
##ᆻ을듯
페미들은
청와
자식은
##죽이고
리발
찬성
아랫도
엑셀
아르바이트
ㅠㅜ
##2년
##아아
나음
##거래
사람이야
기원
##ᆷ이다
살려고
##안에
간다고
##했는지
본능
꼬리
번도
못생기고
이러다
마음대로
이유를
크다
보여주는
ㄹㅇㅋㅋ
##향이
군부대가
꾸역
딴따라
출산율
엔진
쩝쩝
##지니
##하던가
나고
저출산
##시민
마을
시스테
여유
##댓
봊
오른
##바지
수고
##오는데
##금을
##노동
맞춤
##젖
##저런
##었으니
걸리는
집착
재기
요즘에
안되고
앞뒤
놀래
시간대
##싸움
##거리면서
돼지야
카톡
은혜
##이었어
군인들을
틀딱들이
흑우
러시아가
행복한
강력하게
##나마나
옮겨
혜택
모지리
99
en
##하든
가나
##사이
보단
해대
##치도
##치료
차이가
고문
주머니
중소
됐는데
방지
실컷
키운
결혼도
천벌
대한민국은
정부에서
만들어라
생긴게
걔네가
홍보
찬양
꼬라지가
sh
롤
이하
##리아
핫
##렇
가을
사시
사상
사는거
해준
해봐라
##여친
##구먼
##스를
댄
대다
##에서만
남을
제품
먹는데
먹는거
그랬냐
생각하냐
##안이
불가
##당하고
##학과
아닌지
맞아요
##인이라고
두려
여기까지
군대도
책이
당연한거
이유로
웃기다
느낀
좋겠어요
말로만
가성비
썰
##농
##임이
##라야
##시장
마디
여긴
해보고
햄버
말종
잘도
겜
전국민
##심을
##소에서
비율
중간
##개를
##없으면
굿
##뱉
일본을
아닌듯
##감을
범죄자들
저러니까
회사가
합격
끼어
북한에
다녀라
예쁘게
민주주의
##는걸로
다르게
학생들
멈춰
깎아
일주일
14
al
ㅈ같은
##쁠
##가게
##하거든
##리스트
저것도
샀는데
너야말로
엿
여돌
##주네
##주제에
무르
애나
잘되
잘하면
되네
우는
##릇이
##ᆻ다니
##ᆻ다던데
##그럼
성질
##첨
간절
어딨냐
하나는
##파악
세상을
존잘
##넣고
학교를
한다니까
형편
메뉴
##했어야지
복무
복귀
벗어나
정신차려
빵빵
똑같네
쪽팔려서
쏟아
##새끼들
흉기
감성팔이
##리스마
##log
하수구
욱
퀴
##ᆺ값
##랭이
##ᆸ이
##큰
어마
조회
좁은
엮
대답
오해
##치는데
노망
놓은
##장으로
그런거지
유사
##없다고
예상
누구나
눈에는
##윗
감방
쓰레기는
보고도
태극
필요하다
##ㅠㅠㅠ
졸라
방법이
목숨을
콘도
##0년대
##ope
이재명
곤
뵈
##ra
나더라
저사람
안먹
여전히
##주택
##들이네
뭣도
개는
고의
전방
할텐데
나라도
동정
모르네
손님이
들어도
샠히
속옷
결혼해서
미국에서
거기다
월세
철저히
어려워
물어봐
자신이
자신의
##앞에서
밑바닥
흘러
뚝배기
숏컷
vlog
##하구나
##어울
##서관
##해봐야
##기네
개도
##같지
그런말
살살
##빙
입술
집을
##린거
한국도
줄라
##위를
에라이
손톱
반찬
안된다고
교사
맞아도
코미디
군대는
폭발
딸이
듣지
난리네
##악한
준다
화장을
직업을
물어보
책임을
합의를
무능력
분명히
신호등
심각한
자빠져
##ith
##바닥에
국짐당
어지간
##바뀌
노처녀
18
##ᆫ들
##ᆻ든
##에다
거긴
거품
하러
하든
아니거든
인천
미련
피우
싶을까
도저히
##문화
입양
않니
##처먹고
원인
키울
결혼하는
몇십
번만
죄를
맛집
종일
먹어라
코로나가
크면
인성도
운동을
속도를
본인은
무시하는
답답해
시끄럽게
맛있게
40대
헌신
옥순님
페미니즘
쌤통
거리두기
햄버거
##ᆻ겠다
##이면서
잉
이쯤
어서
##러울
가치가
삽
사먹
안들
없네요
바에
##으로서
숫
##모습
##말종
비혼
도른
걸고
##력도
싫고
과실
##리는게
##충격
안된
교복
언급
##군번
30년
밥이나
적은
않아서
환자가
이해를
줘야지
종특
멧
방송국
##폼
글을
조선시대
보기만
음식점
가능성
사망사고
성격도
전문가
밖으로
날씨가
미성년자
듣보잡
무릎
vid
with
댕
쭈
##ᆻ자
##bc
##ᆿㅋㅋㅋㅋ
아름
가격이
좁
해먹
말에
기간
##히면
고집
저런건
##분들은
알지도
##이라는데
배때
감염
늦어
엘
빠르
호구로
사회적
된거
만들지
##알고
##즈아
붙여
철저
궁금하네
뻔뻔한
##lly
빠순이들
김여사
##캉스
2시간
bj
이길
그니깐
어미
##롭게
하라
사생활
안해도
일자리
잘한다
되겠냐
##전이
고령
공포
쓰러
불리
화내
눈빛
일본의
##끼고
있어라
머리카
양양
##꾸역
허가
될까
기사를
대한민국의
시켜서
특이
노래도
정상인
##놔야
말아야
노력을
자격지
문재인이
끊어
길거리에
샤워
구역질
꾸역꾸역
킥
푹
폴
##nn
##들여
##겁
하야
조신
시대가
##욕이
##사친
자제
못만
일할
묶
객
개노
개꼴
##정에
##되게
죽게
살리
유세
남자들한테
화를
받는다
##당하는
모르게
선수가
싸질러
싸그리
음침
##파는
최선을
날라
10대
촛불
사회가
장애인들
팔자
음식물
담배를
남자친구랑
고맙다
기레기들
아쉽
신기하다
워낙
말투가
미세먼
hope
##ᆻ겠네
##촉
##이던데
##라던데
##들지
##마리
##수거
##미터
만원
맞다고
피임
##번에
군복
##인데요
줄은
##위가
손자
반일
교육이
문제인
판검사
올리고
뽑는
저러면
한심하게
골라
누구한테
체인
힐링
찾아가서
울고
게임이
개돼지들
ㅅㄲ들
깐
껄
ㅂ신
##ᆺ으면
##딘
##se
##하겠습니다
갔다가
마이
보이냐
##주시
##봇
정지
개같은
개같이
부어
부려
여자라고
##일텐데
##화점
싶게
유니
봤다
불쾌
##했더라
구매
맞아서
달라지
##판사
회식
갈라
빼액
돌아가는
될듯
판사들
찾는
뇌를
골반
터질
연예인들은
좌좀
철수
곳은
가능성이
벌써부터
모두가
농담
저지른
래퍼
배고파
습관
##텨
##지기
이차
##답다
##도한
##자에
##해준
##인것
보나마나
인형
##부인
##부장
되는거야
우려
차고
##믿
##내야
생각하니까
상습
##분은
성장
거지들
싫더라
##멋
안되네
넘는
날로
날뛰
결혼식
잘못을
페미는
합시다
보여서
라이
배우고
뻔히
있었네
밤마다
##웃겨
즐기
농구
환장한
자존감
저녁에
짝퉁
보행자
훌륭한
##겹살
나발이고
##bs
##뻘
##리티
마치
마련
졷
다쳐
다양
##사지
보태
##주차
없던데
못살
인지
뭐하나
되어야
남돌
차지
돈줄
먹자
##ᆻ는데도
살자
생각나
성관계
연말
인간아
인간말종
##족이
손을
하나씩
알아봐
하지도
원나
지금이
간호사도
쓰레기야
아직까지
아이를
행정
피해가
##근성
설치는
한번씩
죽어야지
세금이
검은
사이트
어쩌다
늙으면
##폭행
자체를
웃기지
웃기고
국가에서
사랑하는
칼빵
##곳은
떡칠
사건이
희망
다르지
실력도
뻔뻔하게
쳐다보
공산주의
안타깝네요
따뜻한
부들부들
전남친
time
##😂😂
##ㄱㄱ
##ad
##아버
내세
##무서
##하는것
##상은
##상황
##드라
너무너무
주택
돈이나
##와라
##디언
할지
##동이
##개가
##과는
##직원
구형
방해
##보다도
반대로
열면
패드립
수준도
최대한
티를
종사
능지가
than
남친이랑
올라가
조심해라
##퇴근
강력처벌
콩밥
##샷
사투리
##퇘지
1시간
듸
##ce
##하라는
아우
##났다
가려고
마실
있겠다
##주기
해주고
말귀
내면
대비
액
##소에
비해
배구
방치
영국
벌리고
타면
발견
교체
##받네
몸으로
살아남
귀한
쉽
빼먹
폭리
보내고
써라
질알
이래도
어쩌냐
사실상
충격이
ㅉㅉㅉ
했어야지
퇴출
쇼핑
##ore
읽어
닮아서
누군가
발전이
모르겠고
우습게
nz
찰
험
##픔
##거고
지긋
안마
##대가리
자가
##였던
되니
개미
개똥
부장님
더욱
돈주고
##미숙
때리는
전용
##디오
생각했는데
유기
##단이
처맞
##린데
##위원
서방
아무렇
꼴값
꼴좋다
소리지
적응
두들
몇명
급발진으로
목적
세상은
군대를
##죽여
##플레
마음을
골로
다녀와
벤
뚱땡이
쥐뿔
슬퍼
잃어
효도
대박이다
소중한
트랜스젠더
외제차
##1년
##gh
이가
##아들
##나무
가랑이
##인트
지어
닫
안간다
한복
##마트
그러나
말이다
같기도
개못
차종
부르는
##ᆷ이네
때리면
##소년
##었고
불구
##님도
배울
신체
한국을
엘리
참교육
쳐박
발라
##셨어요
다니는데
백화점
몸도
평등
친구랑
정도가
##에게는
먹고살
뽑을
미국에
골라서
보이스
본인들이
낮아
있었던
답답하다
끝나고
##샵
장병들
##くなくなくなくな
식민지
video
13
27
##ᆯ로
##떄
##jo
아스
거슬
갑니다
시도
안한
없던
##상관
차려라
제로
많잖아
때릴
소방
와라
빛
유독
##비로
당황
않지
또는
##셨으면
관대
양보
소리하고
걔들은
속에
평화
##판이
##에겐
파티
##영화
천재
채워
보기엔
먹을래
지지율
숨쉬
낳으면
찌질한
죤
압수
왠지
멈추
go
쒸
층
##ᆺ을
##ᆸ쓸
##md
##야하는데
조건
조민
##마저
대정부
옴
##드릴
##노총
##임ㅋㅋ
소주
##조가
와우
##발이
중립
세게
상식이
당시
당해야
거지같이
##력은
들어와서
발음
간호사들이
욕할
얘기를
살아가
말이냐
##권을
만나지
나이를
##입니까
##거리지
죄가
##잡아서
사회의
이해할
주제도
코로나로
뜨고
늘려
리가
아이돌은
##채로
책임감
모자라
불만이
감옥에
촉법
비행기
no
끈
##깡
##하진
##어디
##해봤자
저주
안만
##깝
##보려고
인식
일이나
부부
공중
왔다
비리
비밀
들면
세뇌
국토
간단
어디가서
좋아할
오늘따라
판매
놈을
병력을
빠지
편견
##시키면
썩을
멋있
맘충들
느끼는
아줌마들
관리를
부족한
##떨어진
다를게
쓸데없이
눌러
어린이보호구역
##휘
##낭비
##칸
##쏘
##cm
##이유
어짜
나였으면
##거는
지저
있다가
##보인다
못하나
인원
인기가
애매
더치
게을
먹는다
##성에
맞잖아
살만
생각나네
유가족
들여
도서관
##님의
배불
선비
##이집
어딨어
##줬더니
콧
##양철
백의
잡으면
##두는
웃고
빼면
약한
이러는
포함
저기요
아이돌이
꺼지
빌빌
벽
어이없네
다닌다
몽둥
##99999999
탁상행정
다루는
떄
촬영
##ᆰ은
이나
이득
이광
##어마
그따구로
##아주
##났어
##자격
##야죠
저것
하겠네
하겠다고
마트
너보다는
##대지
##대네
해봐야
##보이는
못참
기저
우월
##생에
수학
미군
죽는게
버텨
##진핑
돈버
전라
##적응
피가
살찐
와중에
##졌으면
##든다
##직업
알겠냐
##샛
##걸까
정신과
치여
영구
학창
빨래
##받아서
추석
아이스크
엄마랑
친구는
정도껏
##하는거임
쉬는
##출신
돌아다니는
천안
가족들이
통일
혓
짱깨들은
미안하다
신경써
고생하는
쥐꼬리
흰
뉴질랜드에서
윤석열이
소속사
바이러스
뵤
짠
틈
저승
하교
##시기
가네
조절
싯
안봐도
##주로
되어서
개돼
죽는다
##셋
##말라고
공사
않는데
##실한
의식
위선
일본으로
인간도
뒤지는
쳐맞아
물가
심신
강한
살았으면
운전미숙
막장
해야겠다
갈까
페미가
##점을
##카메라
맛도
포르
저러다
외국인들
운동하는
##접종
노래방
##쪽으로
##값이
알바생
##센트
침대
대부분이
관심도
판결을
억울한
해외여행
게으른
곱창
dee
##싄
##뭔
이틀
##닫
##어머니
##들갑
##로워
##거에요
하이
조장
다물고
안해서
정답
못난
인해
기록
##생겨
##정보
고속도로
죽기
##ᆷ이지
##금으로
비건
##본데
집합
요즘도
구나
정신승
동기
##한다면
##해야됨
나오더라
계신
패야
얘들아
30분
친구한테
작년
등교
행사
##흉
목을
폭격
딸리는
토할
##했다며
회사는
##순간
경찰에
사형이
잡아다가
아빠는
도로에서
사귈
##잘못
씌우고
공감능력
불러서
재밌는
앰생
고등학생
##ealand
떡볶이
원나잇
zealand
##ir
##다른
그려
##에나
가리고
조언
시전
안드
안하나
보정
아니랄
대마
##장사
##르네
제공
고인
고장
고용
##그리고
전여친
##왔으면
입냄새
당선
##회전
눈은
##업소
감기
의대
##연이
서서
원훈
심한거
강하게
법원
인생도
키도
앞에서는
빠져서
추잡
300
##코로나
헷
폭로
돼지들
##카페
군인들에게
걔네들
삼겹살
정신병자
##벤트
억지
미쳤네
못생겼는데
부모님한테
##잔데
뒷통수
지킬
러시아는
##ong
신호위반
컨텐츠
이태원
콘돔
이참에
지저분
2번
##꼭
##na
##하대
그나
지워
시자
안하는데
##만하면
보이면
대가리
일어
일어날
게이들
##오네
##적이다
비켜
##년들이
입장에서
상담
##했고
받게
##새77ㅣ
##줄알아
의외
인간을
##재미
##충아
##계를
발목
계시
##감정
후원
##륙
##죽을
잠시
짜증난다
사진을
예쁘다고
##시킬
괜찮지
장사하는
들어가면
그지같은
노예로
도와주
외모가
의미가
지겨워
현기차
짭새
태극기
어짜피
see
##펴
##💊💊
##👏👏
##지컬
아시아
어플
가세요
가중
##냔
##만으로
여가
있죠
자취
잠이나
한숨
아니었어
##였지
오버
##정차
노력이
님이
##라곤
##단속
저런게
집회
##이라니까
##이라던데
##린내
##남들
매년
선고
이런게
친한
##망상
적극
두개
말고는
호들갑
힘들지
살인을
북한은
##하니깐
말아라
괜찮은데
색기
##놓으면
실수로
예의가
석유
##자체가
쥬랄
쓸모없는
제작진
##ᇂ아서
##ld
##이는데
##이런
##있어요
##나온
저것들
가출
사정
다리가
##만명
보복
없을까
##겠군
##짜증
내지
못된
못한다고
일하기
애인
그런거야
싶네요
비비
남자만
입학
##친절
동영상
이런건
##연히
소리만
밥맛
나왔으면
귀가
않았냐
커버
끝날
산책
사귀고
기본적으로
뒷담
궁금해
훈수
해체를
씌워
집안일
##라이팅
목소리가
딸배들
가스라이팅
안락사
간호조무사
아스팔
ex
뒈
ㅁㅊ
##이름
##니스
##리지도
걷어
가즈아
모임
안보고
있겠어
있는거야
보신
인상
##숨이
##ᆨ일
##적이야
피자
생각해도
당하면
당하길
않습니다
불행
매출
거지가
##용으로
감자
하나하나
쳐서
타투
심해서
없어져야
패스
수준인데
나왔네
파괴
목표
페미들이
판사는
멕시
군인은
##했다가
먹었는데
대통령은
탈북
외국인이
뜨거
뚱녀
가져다
탄핵
닮은
##스럽네
피곤해
범인
전기충격
자영업자
힘내세요
즙
일으키
콜라
바빠서
인과응
팍팍
소름돋
thank
deemd
펑
##짤
##ri
##이겠지
##가며
##도시
##앉
어딘
##걱정
하려는
지각
시진핑
##주는거
묻어
##간다고
##되어야
##같지도
##ᆻ다더라
##적이지
##봐요
도전
셋
난쟁이
국적
받으려고
연장
재활
근성
##역겨
쟤도
경비
##못하게
열어
소리냐
멱
좋은거
작정
죄책
공부나
악셀
미국의
한녀가
믿냐
형이
북괴
백신을
##켓
준다고
노래를
공무원이
행동이
밀고
연애를
##atch
60대
고등학교
부딪
맞춤법
ㅆㅂ
##ᆸ지도
##ver
##이션
이모양
아휴
##거릴
하려
##인다고
사세요
담임
안에서
잠이
보장
한글
그러는거
말하네
##무리
##였구나
인력
노릇
부리
##같애
너무하네
먹게
##할게요
소수
할말이
##조절
드리
남자들도
##발찌
##긴다
쓰는거
처먹는
알만
##같은게
동일
모르는데
하고는
이제야
좋았지
##증이
밥만
1000
데서
잘못이
홈
재미가
필요해
보내야
써도
몰랐어
대학생
누구는
##메달
그럴거면
으이
정신병원
독서
귀엽다
뒤져야
불편해
땅에
덕에
##스럽고
##잖냐
진세형
깝치
##ays
오팔아이님
##지키는
##웩
유일한
장례식
어마어마
8차선
co
##쌔
##ion
##이틀
이라
긍
저질
저렴
##기엔
##한듯
##만의
##주행
##보험
내버려
일로
기능
##버리지
수영
##같고
제외
더불
##오게
##진거
맞습니다
피씨
유투
봤을
당대표
처먹어
##것이지
반말
하나가
서른
##충은
##한다니까
나오게
막히
솔로
작고
범죄가
짓은
토악
옷도
가슴도
쓸어
##고싶네
아줌마가
궁금해서
##ᆯ리즘
징징거리는
##할까봐
##뒤룩
든다
팀장
배고프
힙찔
전자발찌
분리수거
쥐뿔도
탕
##ㅎㅋ
##ㄹㅇ
##지긋
이벤트
##기냐
##으려면
하라는
가는거
좆
안걸
보이고
없지만
없나봐
##보소
##의식이
대면
##바꾸
좋을까
##먹지
##봤냐
상품
알겠는데
##당이
정신이상
반려
머릿
실험
법적으로
얼마전에
꼼
결혼한
##하는거냐
피해의식
보낸
힘들면
종족
##해주지
혼자서
걔네들은
사귄
부모님은
모자랄
##ang
여자친구랑
나서서
족발
납치
싼티
은근히
망치로
겸손
굉장
헷갈
멕시코
셔
##ul
##fe
##쭈
##담이
##라우
얹
##나니
났어
거절
하노
사촌
닫고
여캠
잖아
해볼까
진양철
##들이다
왜그렇게
##구가
무슬
오픈
수박
개극
개만도
##되니까
야야
##차반
##진다고
많으니까
땜에
##렌
공간
유흥
##유예
중졸
간섭
##했겠지
##걸이
연금
스윗
감정이
자기도
과하
알아줘야
뒤룩
##해야겠다
수준으로
최아
몇몇
출퇴근
사회주의
떨어진다
라도
총기
조금이라도
##께요
빡머가리
동네에
##받아야
뿌리
선수들
고마운
못하겠다
자리에
아랫
가정교육을
언젠가
댄서
뒤룩뒤룩
2주
2천
뷔
##껴서
##쌀
##쭉
##ㄱㅋ
아녀
나중
##로써
##주면서
말이나
##스러움
못하니까
인한
##부리
##부를
##부리는
기절
우산
야만
##먹어서
유재
##체를
##킥
연기가
##있으니
##회장
##쳐도
반지
##셨는데
아무런
아무튼
올릴
소리하네
걔랑
현장
얜
민망
빠른
##권이
넘겨
밥그릇
급발진을
않아요
아니냐고
초반
무섭네
##약한
자식도
어린이집
떠들어
싶어요
먹어야지
몰랐네
극단
누구를
하루이틀
도로를
키우고
모자이크
낳을
태어났으면
겨울에
인스타에
##est
가득한
##싫어
관상은
##썩
##이블
그따위로
아시
거구나
하겠어
사창
마리
안정
말던가
##수사
개차반
차리고
고치
살림
할인
유족
##유의
중딩
##것다
받으면서
신분
모르겠지만
쌈
##학년
##부터는
##해야합니다
##혼자
양발
소릴
욕심이
현명
달린
웃는
파업
생겼냐
없다니까
채우
힘들겠다
은행
메이
포퓨
여자들한테
##하시네
북한을
바가지요금
짜증남
사실을
복수
##퀴벌레
어떡하지
전부다
다리를
생기지
헤어몬
이쁘다
방법을
악플러
인터넷에서
ㄷㄷㄷ
기획
##찐따
콘서
슈퍼
술마시고
##껀데
지긋지긋
아이스크림
쾌
##흘
##가는거
이불
이익
##아라
지오
조카
안그러
아니겠지
무대
되도
##차이
##그만
##성도
싶고
##져도
불친절
##선생
##샠히
눈만
과장
심사
학벌
##집에서
##못해
돌머리
빨통
패서
키스
했는지
직전
날리고
몇개
목사
##근데
호갱
저러니
어쩌려고
화장품
윤리
자신을
상황에
눈치가
못하겠어
민주당이
개인적으로
석열
닥치고
나머지
아가씨
방지턱
58
at
are
##ck
아네
어후
##나는데
##기다
조국
시내
안감
여군
보빨
해달라고
바랄
내놓
##하는구나
인싸
##부심
되서
##음식
##버림
개이
##같네요
고개
너무나
살ᄍ
봤자
##질환
세종
##안되는
##했데
한국여
##듯ㅋㅋ
쟤랑
##형을
들어오면
물에
심판
부모들이
없어지
몸은
걔들
중국산
그렇겠지
공부는
언제나
##버렸네
범죄자가
천사
채식
답이야
보내는
싫어해
##자들한테
형사
##하시면
주제파악
지역주민
가슴에
##광고
넣어서
50대
합의금
읽고
춤추
징그러워
노인네들
슬프다
에어컨
며느리
조회수
두들겨
더치페
재활용
watch
멀어
퍽
ㅂㅅ
##땡
그정도면
##아가
##나와서
나니까
하며
하찮
지체
없긴
##래요
##묻
정병
무책임
기초
되었
되는거지
개오
좋잖아
미역
미혼
야이
##일로
##르기
주냐
먹음
##소로
##조심
##안되
불량
배워서
구간
줄이
##끼는
머리로
##크로
듯ㅋㅋ
지금의
정말로
병력
살아도
술쳐먹고
짜장면
똥양
중국인이
찝
나이팅
태움
##거리네
보내서
특정
##활동
저러냐
산다고
낄
다녀서
##폭탄
흑인들
보이더라
##곳에서
쌍욕
팬들
어머니가
선택한
줄어드
잘났다고
향수
상식적으로
특징이
오냐오냐
브라질
정신승리
포퓰리즘
윽
쩐다
춘
##숴
##싹
이다
이슈
##다던데
##라면서
##하루
나의
하신
사는지
맙시다
시기
안사
자궁
##였냐
##스런
못사
못보
생존
되기
수출
부서
##전을
##전쟁
야한
야스
야근
##세계
주위
먹방
동료
이런일이
일본인들
따지
오늘부터
망하게
백날
몸에서
술만
말이되냐
##하냐고
똥싸
##온거
사고로
##늦
데가
사람들만
죄냐
##꺼다
커녕
##버렸다
##거든요
팔이
아까운
놈이네
본인도
서울대
정신차릴
기다리
##률이
여자애들은
등쳐먹고
ㅋㅋㅋㅋㅋㅋㅋㅋㅋㅋㅋㅋ
시원하게
따위가
자영업자들
외노자
머가리가
콘서트
꿰
##ᆺ냐
##ter
##뽀
이동
##하자는
##하겠다고
##야돼
모으
진도
말해라
##구는
무덤
오는데
오염
잘해줘
우웩
부실
고향
소리는
우리한테
비하면
처참
##것만
스마트
##물로
##잼이
안될까
놈의
다니기
인생의
응응
허접
다른나라
30은
나와도
딱딱
목에
학교가
만들었
독일
##쪽에
속도가
사랑해
##될듯
##버리자
##버리네
바뀐
짧게
알려줘
포기한
상상만
브레이크등이
혈세
괴롭히
한달에
허벅지
##리스마스
##쇠
##흑
##ㅌㅌ
##익이
나냐
나몰라
##해지고
사줘
사퇴
모조리
조별
다님
닫아
대고
개조
##정책
노란
##ᆻ었는데
돈이라도
그런다고
##말도
때린
맞어
살래
우리의
비키
유연
봤지
##단계
##난거
거지들이
또한
또라이
선넘
이런걸
싸는
싸우는
쳐도
##연기
교양
문제냐
문제를
법조
올리면
##박꼬
망해라
쓰레기들이
현타
아니라는
아니라서
목욕
##한거임
##딱지
겪어
자식아
줘라
주제를
자살하는
자살하고
대한민국이
인성은
짱깨는
광화
수도권
무식하게
흑형
##현우
상황에서
없애고
즐겨
승무원
탄력
멸망
상대방
마인드가
하늘로
납셨네
근처에
##드려요
넓은
멋있어
말세다
이광수
나이팅게
can
la
뜰
##ᆶ고
##♡♡
##이제
이모
가관
사료
시동
##주자
##주인
해봤자
내야
오글
개슬람
여자야
밍
그런식으로
때려서
##처분
치명
동시에
영혼
인간쓰레기
결론
참여
##따로
##죄로
다니니까
병싄
현역
민노총
##군데
10분
갈기고
길을
김진
##자들을
옷은
##했었는데
짱깨가
누구야
게임에
별로다
트럭
논문
##같아요
##ᆻ잖아요
히키
##하자고
##뜨려
당신은
선생님이
아버지의
돌아가신
벽에
없애라
바꿔라
똑같음
모습을
인터넷에
데려가
##또케
꼴페미들
헬스장
블랙박스
24시간
군복무
층간
벙
훠
##댕
##룸
##ᇂ다
##il
##ㅏㅏ
이대
그날
모순
다스
시즌
보는거
없겠다
바엔
못사는
생색
##벗고
숟
개떡
좋긴
여자면
여자의
제도
##차도
주는데
주의
##디션
저런것들은
##것을
##당할
방에
부모를
언냐
##ㅋㅋㅋㅋㅋㅋㅋㅋㅋ
30킬로
이상은
##다닐
같은데요
공부하는
재밌다
##쓰면
식물
음주운전에
걱정이다
탈퇴
##들한테는
##외과
뉴스에서
하는거임
사형제도
쪼잔
동네는
중요하지
넣어야
조선족들
행복하게
기업이
멸종
폰팔이
결과가
줄어들
나쁘게
띨
멋있다
육교를
##얘기
확률이
정확히
옹호하는
위안부
잉여
멧돼지
자격지심
아니랄까봐
3명
묘
ㄱㄱ
##셜
##폴
##이구만
##랍시고
##서를
##들인데
어려서
##나다
##거면서
##을수
안고
안통
말해도
##였나
못들어
오질
##바른
개고생
노잼
먹을까
만지
전투
소송
생각하나
공기
남자애
중간에
##개는
##때가
##과의
문란
처맞아
예약
영하
벌면
알아라
뒹
##한다는데
##해야해
##해야돼
법정
관대한
꼴을
##박고
인생이나
수준을
운전면허
등꼴
##소리를
명이
이거지
혼전
맛을
자식들이
이러다가
특수
빨아먹는
척하는
생긴거
시킬
얘기하는
##않나
흑인이
업체
미안한데
딜
뿐이지
밝히는
밟고
##뿐만
##자리에
누군데
어떨까
썸네
이루어
5만원
깽
쩔어
퀄
##맹이
##nt
##ᇀ에
##지사
나게
가는게
사치
너덜
다물
##댐
있거든
##보는데
##무게
##스팅
못하니
##상으로
인격
무고
기집
기관
잘한
개ᄍ
개저씨
##내려
맞기
맞긴
남자로
##비용
입다
상가
상의
##분을
성기
화면
##까짓
됐으면
##당해서
구제
스케
영감
느개
싫지
알았지
지금이라도
##셨
##ᅮᆷ척
꼴리는
##등급
망해도
추운데
찌럴
적어
별거
사고나면
필리
공부만
##꺼임
혼혈
채용
미국도
죽여버려야
이러면
##자들의
테니까
깨진
아깝
##놔서
도로가
왜이래
프로포
인권이
하다하다
때문이지
잘라버려야
##보이는데
##풀이
짤라
우동사리
스펙
as
핀
##ᆺ줄
##가슴
##다시
##으라
하실
사명
조직
시어머니
##깟
##봅니다
내린
##하는것도
인가
일어난
##수지
남들이
남혐
##드만
부류
##모가지
먹으니까
##높
##미로
##적도
살찌
드러운
##졌는데
저런걸
상폐
당사
집권
##키즈
엄중
스벌
방어
어디까지
좋아하는데
심보
심하지
돌림
망해서
놀이
후손
막혀
웃기는
받아들이
편한
국민들은
길이
보내라
어린애
질병
짱깨들이
누구냐
게임만
ㅎㅎㅎㅎ
못하는게
사형시켜야
##주의자
귀엽지
##뜯어
헬창
앞으로도
뒷돈
민주화
바뀔
안전을
손흥민이
염색
헌팅
예뻐서
쎈
익숙
일제강
끓여
몸뚱아리
세월호
섭외
심신미
보신탕
35
깍
쩍
##10
아비
어처
어두
##로지
저것들은
##대학
자료
##주는게
없니
대굴
같지도
기여
##신도
개더
것들도
욕이
제출
죽빵
##모르
주인이
주위에
많대
##미리
##내지
때만
유통
봤으면
##년을
불공
##했지만
##선이
연쇄
나랏
##력으로
동거
의원
따라서
벌려고
쳐먹어
들었는데
##법으로
교수가
학살
아무데
법안
코가
몸무게
빠르게
달에
수준이네
직원이
해야합니다
##겠냐고
쉬고
##근무
호주
##영회
될텐데
죽여서
거기가
떠오
하냐고
대한민국에서
어쩌구
리뷰
##환경
년들이
퇴직
##센터
쌍도
전쟁을
가져가
##스럽습니다
헌법
어울리는
상태가
##넣어야
핑계로
주민들
앵앵
대상으로
민간인
21세
합리화
허구한
등록금
순진한
굉장히
##라우마
1차
ma
씀
##낌
##ᆸ는
##20
##빽
이시
잊어
##어어
##아니다
##자루
거를
##해달라고
##으나
하죠
조현
다운
여시
있으면서
자라서
해고
##스는
잘라서
개무시
##먹냐
##와도
할거면
##져요
들러
군캉스
##질은
성실
문자
국대
국세
##했을까
배부
##새기
장관
감독이
##중독
손도
##계는
##못하는
법개
꼬시
술취
중국에
##온다고
별풍
친구들이
##다니깐
정도야
싶다는
명문
받았는데
갈겨
출소
길게
태도
호박
찍을
돌아간다
죽었다
어제도
대한민국에
대단하네
보여줘
투기
너네는
풀발
정신병원에
현실에서
정상이
##베이터
디지
뿐인데
꿈이
깜둥
그땐
권리
떨고
저지르고
한국말로
옮기
맞춰서
뭉개
무지성으로
자업자드
시스템
혓바닥
뵹신
더불어
무슬림
유재석
mz
##이해
##어를
##은게
나처럼
##데기
저따구로
가입
마시는
다만
다섯
자르
한게
없겠지
없었으면
진심이
##겠습니까
내놔
못자
좀비
##차에
그런다
##할것
##민이
살을
할거야
상상도
당첨
##걸려
신청
눈오면
줄게
또라
##피해
싫네
쟤들
참으로
물리
아무거나
속으로
수준에
30살
막내
횡
적도
##ᆻ냐고
작아
##씨가
받아야지
설쳐
##지마세요
징병
보낼
가족도
장애가
##하기가
##하기만
통구
불쌍해서
임금
걱정마
##는것들이
터트
뉴스가
둘째
하는거냐
철밥
업보
숨겨
ㅇㅈㄹ
바꿔야
일어나는
펭
150
말씀이
먹여살
업소녀
붕어
냄져
586
숟가락
필리핀
3번
mo
훅
이마
아는게
나야
##로그
갔으면
##인지도
사네
자르고
보라고
한방
햇
했다는
말하냐
대주
기상
오리
잘먹고
##바람
수록
좋다는
노키즈
죽었
죽이지
먹었으면
##할걸
전부터
얼평
비가
상위
상인들이
스키
##위터
자기만
반박
과외
##경우
힘을
##빡이
살아있는
##두룩
짜져
회복
적게
해야해
귀에
국민은
길가
태어날
특유의
크리스마스
늘리
삼청
배우가
현실을
집에만
뛰는
홍대
빌붙
장애인들은
##곳도
##손으로
축구선수
정신차리
옛날에는
삶이
찌질이
물건을
쎄게
개빻아
미끄러
낯짝
어지간히
쌤통이다
전라디언
일제강점
##ᇂ지
##이며
##시를
가다
사지를
지진
지식
안받
##만데
##만들어
##려니
한거야
없는거지
말라는
내리는
같으니까
##신데
되는게
남들한테
##듣고
개역겨
미숙
니나
더한
##오래
먹버
##할거야
##동물
공약
봤나
중이야
신음
##난다고
줄이고
모르니까
싫으니까
발끈
부모들
양남
##꾸로
백만원
꼬셔서
##공무원
##택이
했겠지
이상하지
그만둬
번씩
행위
행패
편해
##코모
폭설
컵
인정하고
청춘
세금은
##하나요
먹었어
산업
축제
사이에서
있다니까
터지
다녀야
그럴까
현실이
제설이
무식해서
빡세
저번에도
하자고
확실하게
스타일이
##빼고
숙제
어른이
똥꼬충
열등한
못알아듣
케이스
가까운
웅앵
동양인
청주시장
고객님
폐기물
길고양이
객관
나이팅게일
히키코모
어처구
22
캬
##킴
##도에
##엎
##서가
##아는
##아까
##자만
##자석
거르
지인
있겠네
##주니
##주얼
같잖아
##치는거
##치면서
수두룩
##드네
부지
부인
##우스
많습니다
전교
전생에
##한텐
피우는
살길
##소음
할수있
비어
##질하고
##년들은
세우
##분도
쓰면서
알빠
##걸고
누워서
연하
##탐
어디야
영양
##중이
물을
나오는거
샛
걘
키작
##군이
술처먹고
웃으면서
사고나
##에게도
만나냐
공부해서
폭망
##결혼
필요는
거기도
떠드는
면상이
싶었는데
##하시네요
##ᆯ까봐
사형시켜라
정상은
공무원들이
찐따가
행동하는
##평등
침략
창문
당신들
꾸며
최고야
징징대는
존재하는
뚱뚱해서
시끄러운
카페에
지켜야
지방대
거리면서
깔려
좋을듯
예전에는
징그럽
빠순이
깨끗한
미세먼지
9급
we
곡
뉘
##이거
##갔다
##고도
##라테
모욕
시장이
보려고
해명
같다고
일하면
기념
잘살아
남한
##정지
##정치
##되어서
##되는게
##테러
좀더
먹다
##ᆻ다니까
전범
전쟁이
##심병원
소금
##소득
##년전
걸리고
불과
알겠네
##교체
신뢰
구워
운행
일본가서
좋았는데
좋아하냐
##낄
친척
문제지만
꼴랑
다니는거
망했다
몰고
얘기가
##공부
넘으면
##판에서
찌그러
취해서
잘못은
##이냐고
목숨이
않았는데
환영
시간만
사회성
김밥
떠들
토크
##량이
통수
불쌍하네
바꿀
영상이
뜻이
댓글이
체육
곳도
직업에
##먹었어
있었음
택시기
자격도
여럿
아저씨가
짜증나네
아나운
맡겨
휘두
돈벌이
정책을
윗집
안쓰고
피싸개들
삭제
고양이가
종특이
중소기업
긍정
미역국
훠훠
do
뮤
뺑
펼
##는구나
##가보네
이따
##아나
거예요
저놈
하는것
가시
가봐
너부터
보아
##겠던데
아니겠냐
말대
##옆
뭐다
오또케
##치냐
##수고
잘하네
잘해야지
수단
수백
개지
개인의
부분이
##같냐
##일뿐
죽인다
더더
##오빠
먹네
만지고
그런듯
살라고
##발로
##융
##안보
국어
선제
하나로
원망
발달
##급발진
계단
다니더라
##박살
##받지
뭘로
허용
수준의
밥은
밥줄
회장
그만두
행주
##소리도
않았나
멍청하고
##한거냐
재미로
20만원
딸을
믿지
이러냐
가족을
포인트
질러
불쌍하지
항의
기분나
나온거
트라우마
뻔하지
니네가
총으로
캐스팅
의사들
따라가
마라탕
브레이크를
##키로로
키우면
각오
##꼴이
성형한
##더라고요
이름이
##정부가
빨갱이들
자유시간
쪽팔려
찌질하게
##잖어
견디
서민들
내용이
취향이
합법화
젓가락
평범한
응급실
기원합니다
퀴어
김진태
pl
us
쇠
줜
##꼰
##묘
##bt
##et
##ny
##xx
##고만
##거품
하려면
가리
사겨
사는거지
지역이
시각
##렸네
보적
아니죠
내부
대가
일이지
오고
오로지
잘해서
잘해라
부패
##노예
##말라
##먹던
##먹으면서
전시
전공
피고
##소를
비틀
비주얼
융
##트가
##이라는게
##교육이
연기를
##당에
##속으로
치우고
동급
##피싱
이런식으로
##배로
따먹을
인간적으로
알았냐
뒤지고
좋아하지
양성
열정
코끼리
망치는
달래
##판을
웃어
박힌
이상형
##다니면서
##소리가
피해자는
군대에
많은지
냄새도
병원은
뇌물
난리를
빨아먹고
##썹
늙다리
표정이
댓글들
트러
트위터
사형을
##같아도
##놨네
교육도
못생긴게
쪼개
장사꾼
깜빡
짐승만도
덜떨어진
똑같지
미래를
면상에
알려주
나대네
님은
어릴때
뷰지
셀카
탱탱
##댓글
머리카락
죤나
가중처벌
but
rea
이란
##서도
앗
아지
##기관
하등
하든가
지급
여전
없었
내릴
##구마
인식이
##수밖에
잘했다고
되겠지
##겨울
좋겠는데
노니
버러
돈없는
먹으려고
##먹으려고
전에는
##민주
피도
##왔다
드셔
들었
##안함
##분들도
신나
정신적으로
감빵
언플
##달래
##받게
패딩
속은
술이
넘은
최현우
취재
##더니만
급발진사고
##근처
악덕
딸려서
살인미
대통령을
정치를
극우
사진찍
프랑
아는척
아프면
보이던데
된다니까
상관인데
상관없
홍콩
##많음
몸매도
개돼지들이
전쟁나면
뿌리고
학생이
시끄러워서
꿀빨
이쁘지
분명해
식당에서
나쁘지
미리미리
어쨌든
힘드네
바쁜데
곰팡
냔
나몰라라
퀄리티
국세청
틱
##펑
##ia
##다는데
##다닌
##들에
그릇
그모양
아나봐
##자라고
##자식이
거기는
##거잖아
##을텐데
맘이
없죠
아닙니까
왜냐
##스러워서
대기
기득
오진다
##밖
##되니
##전환
야발
고액
##모가
##모델
먹다가
전통
생각밖에
빅
유도
##녀는
불태
##남은
##방역
엄한
동생이
모르니
얼굴이랑
싸돌아
##능력이
##중에도
좋아해서
들어오는
##빠지게
판에
판을
사람이면
꼴도
꼴사나
달달
##판왕
##련들이
쉬워
##거리는거
##갈이
호빠
##끊
재미도
천한
뇌는
뇌절
떳
토착
토나와
앂
대단해
척은
탈코
지나면
뉴스를
삼촌
경찰은
##합니까
먹는다고
벗어
때려야
부모님도
서울에
기다리고
넘어가는
끝나면
잃은
재수없게
시청률
와이프가
갚아
주먹으로
열받네
월드클
##ood
보이스피싱
몽둥이로
싯팔
조현병
av
mu
##ᆺ대
##ur
##ᆿㅋㅋㅋㅋㅋ
##갔는데
##하래
##게이
아내가
##리잖아
##해봐라
##거니
##시요
##한건데
사태
모솔
지우
##깜
한둘
바른
바이든
인재
무례
오져
오덕
잘살
##생각이
수용
##더나
미필
##르장
주기
피디
소음
##더라구요
공식
비대면
중앙
##객이
##안됨
성과
국룰
##했더니
받는데
예방
##새퀴
##있는게
엄격
정신상태
줄까
방향
##쳐야
알았네
문제라고
간호사라니
양치
걔도
잡을
허위
말이라고
했을까
작가가
틀려
출발
##입대
단단
언제쯤
많은거
뽑고
떨어짐
판사도
카레
##죽일
면제
마음은
기사님
음주운전을
##이었다
순대
지나갈
착하게
사실은
복잡
아이돌들
빌런
고생이
멋대로
멋있는
장사를
할머니는
로또
뿌린
노력도
##해보여
전라도는
그때는
늦은
##먹었냐
언니가
강아지가
데려다
바꾸고
어딜가나
따위로
중고차
여름에
이후로
집행유예
멍멍이
백의의
학창시절
스마트폰
철밥통
삼청교육
5천
낀
쏙
##므
##ㅌㅊ
##고에
아가리
아웃
##로도
거머리
##기한
지리네
조지
조정
다물어
안구
자숙
자폐
내놓고
대대
무한
무관
앨
사람인
기운
수면
수많은
개네
개뿔
##는것이
주행
만에
##말은
그랬는데
##화는
공항
왔냐
남자보다
중인데
##개로
당근
성향
쓰는데
줄을
동성
선을
의존
위에서
위대한
손모가지
##집은
##해야할
실명
법적
망정
허언
빠지는
달리는
똥내
아이큐
##판결
밥이
밥값
솔까
##불쌍
피해망상
초등
죄야
한번에
##버려서
##팔육
필요도
힘들고
##투쟁
합니까
##했어야
영상은
금메달
생각해봐
반성하고
여친은
아빠도
미친거
죽을때까지
숨어
소개시켜
이쁘면
승리
느껴지
형량을
유튜브에
얘네는
기준이
##ent
썩어빠진
제조사가
공공장
사법부
멍청이같은
vlogs
인과응보
토악질
kbs
슴
측
##띤
##툭
##ly
##ways
##kg
##ap
##하든가
##들과
그깟
아비가
##자한테
저여자
##시가
가더라
조심히
안했으면
##대서
한쪽
진출
말인데
##의사
사람에게
사람마다
오세요
오후
##는걸까
##일세
고칠
더러
##세금
공평
왈
비상
유출
##번호
들려
중공
쓰네
##했구나
신세
매달아
느려
과자
참을
들어야
##나라가
물이
강도
본다고
다니잖아
##프트
쓰레기네
살아가는
술에
빠지면
빻아서
적폐
##느냐
##편네
##으니깐
##불가
길러
##버렸어
역겹고
끝난
보내면
가족은
군인한테
온라인
##시켜야지
대학원
투입
##볼게
터져서
끼치는
외국에서
점령
보니깐
찾아내서
벗방
책임질
그런거임
뽑아야
꾸준
대부분의
지키고
개돼지로
출신이
벼락
##할까요
##버릴라
저래라
찢어버리고
##가고인의
자리에서
윤석렬
다행이지
책을
만드네
시비야
애기들
오랜만
도움도
##싫다
난민들
싸지르는
쪽바리들
월클이
익명
못배워
된장녀
모른다고
소식이네요
묶어놓고
안녕하세요
죄책감
뒹굴
프로포즈
쩍벌
찜
ㄱㅊ
##ᆺ음
##믄
##ill
##ge
##지금
##지덕
이면
이를
이라는
##다며
##라나
나같은
나누
하아
하차
가사
가상
가라고
가축
사야
사는거야
사정이
마루
넣은
시국
##까리
있겠지만
자원
한일
한잔
##래스
아니더라
말하는데
##구역이
정직
대만
대장
대학이
##부족
기껏
오라
오일
되는지
우승
수시
좋지만
##더러
얇
##세포
버르장
##소리는
할일
하는건데
유발
##긴데
##비싸
성인이
국과
##했으니까
예정
##준이
##속에서
##타는
싸우고
따져
손잡고
쟤들은
반가
이제부터
심리
간호사로
아닌것
##셨네요
법도
##박한
##받음
분들은
술이나
애들임
직종
막고
밥먹고
박사
아주머니
나와야
여기에
명백
않았으면
멍청하면
끝이
##된거
세금만
토막
메달
씨부
##을까봐
자살할
자살해라
먼지
노래는
년들은
처음에
빡머
이야기를
중요해
낮아서
낮추
혐한
스쿨존에서
확실한
이쁘고
없애야
규정
부족해서
흔들어
지네가
성공한
팀플
련들
ㅋㅋㅋㅋㅋㅋㅋㅋㅋㅋㅋㅋㅋ
꿈도
모양이지
##지않냐
할아버지가
인증하는
뭐만하면
중환자실에
##뽑아
##🤣🤣🤣🤣
토나온다
always
간절히
킥보드
아스팔트에
뜨거운
층간소음
융통
쏜
##ᆺ다고
이드
아껴
##아웃
##리니
검새
##해져서
##인정
여편네
보이나
##주변
한결
##보게
내기
내리고
##제발
되겠어
차이나
##전부터
##히지
##는거랑
##하고도
고위
죽겠는데
##먹네
공동
비유
##저것
중동
##개도
##체납
운명
위치
일본놈
##길이
##학대
있었다
강사
##한다며
##집단
##못하고
##란게
쓰레기통에
아니라니까
했길래
추하다
중국인들은
놀다가
놀이터
후에
그렇네
출입
시간도
##ᆻ을지
빼박
못생기면
돼지처럼
돼지같이
떨어지게
믿으면
끝판왕
볼래
##카스
종이
통해
산소
축내는
사이버
탈세
바가지를
트레
노래가
아프지
무식하면
총알
##누나
##않냐
암튼
월급이
##정부는
일어나서
죄송해요
승진
앉았네
삶의
거짓말을
##몰입
반대하는
들이밀
우크라이나가
고통을
고통스럽게
경우도
지나가던
쌉가능
무섭네요
happ
센스
빙판
##쓴다
분노조절
수십년
미용실
##000원
아랫도리
3천
dna
kim
sa
쫙
##ᆨ트
이웃
##어로
아작
아들을
##림이
나네요
나가지
거만
저리가
##으라는
##시험
좇
조치
조무사
여관
##대면서
##막이
말래
##구를
일정
일이냐
무당
##부르
남미
노트
제거
너무한거
버림
버리면
줌
##먹기
##적은
어따
살빼
생각에
##레임
드릴
##질도
##빗
##안돼
입증
##없냐
않잖아
않겠냐
성폭력
간만에
##이라면서
재워
눈엔
나라다
매운
영웅
손발
##연애
##경은
힘도
##해야된다
외계
몸파는
욕만
##두로
다른거
##다니고
나왔다
##갈래
폭력이
재미있
##카오
세금도
마음으로
##이어도
빨아주
##악셀
팔면
댓글에
어땠어
##고싶음
자랑하는
혹은
넣는
뿐만
##km로
게이들은
정권이
탓을
씌우는
##먹었나
흘리고
때문이다
저지르는
이것저것
유튜버들
싸지르
뚫어
입장에선
보여주기
튀어나온
천박한
피씨방
36
pd
퐝
##이파
이왕
##서울
나나
##깃
가혹
##을게
사탄
너거
다이
시발
시계
##대의
있기
있도록
진보
##마음
말하는게
##제동
정책이
인신
인공
무임
기자가
부를
것부터
##는거네
미꾸
고발
##심한
왔네
##앰
연기도
##당은
치네
##탑
##줄도
의도
따지면
과몰입
좋아함
타서
##해야하는데
나오나
나오니까
##박아
##파리
이렇게까지
쓰레기들은
##릴라
운전자들
막노동
작으면
번식
받았으면
빼돌
호모
미국처럼
죽여놓고
201
약쟁이
줫
형을
저러지
난리냐
바꾼
영상에
지들만
글씨
하루빨리
아버지는
##아니면
다녀오
정상이냐
해주지
찐따들
앉은
there
칼들고
물어본
남편한테
디자
낳아서
행복해
고맙
쓴다고
저래서
##힌다
극혐임
##ear
못알아들으면
둘이서
휠
##협회
##장애인
개빡치네
긴장
일상생활
엠생
캣맘들
못찾
##끌고
like
최소한의
젠더
깔끔하게
양발운전
심신미약
줜나
##꽁
##흔
##ᆻ군
##똘
##ok
##엠
아들은
##앗
가수가
사니
사상이
마마
마무리
안써
여사친
##사는데
있노
있네요
보세요
진료
##국으로
인물
애정
생계
되길
수작
##전용
##는거잖아
죽었대
주면서
먹튀
##그라
살인이
소원
##소한
생각해라
건방
저런애들
상당
불효
##했니
##이랍시고
돼지는
거지근성
치사
##듯한
방학
선정
##줬는데
하나라도
##빠는
실형
네일
없었는데
욕도
욕하지
꼬박꼬
병신
현직
보고싶다
똥칠
회의
행세
있을텐데
쉬쉬
##싸롱
혼내
볼까
식사
줘서
##량한
##했다는데
걱정이
##창호
그럴수도
댓글을
립
현실에
프리
안보가
안보를
국가대표
##택시
미쳐서
헤어진
앞으로는
로봇
자격박탈
해줘라
이름을
끊고
못하겠네
이용해서
##눈물
놔둬
잘생겼다
만드냐
##넣어
한남이랑
##떠는
논란이
대화가
쥰
그정도는
지껄이는
아재들
##샛기들
##리카노
전체가
끔찍하다
골목길
쌩얼
유니폼
법개정
부지런
기득권
꼬박꼬박
훼
훤
ㅈ같이
##멀
##ㅇㅇ
##😡😡
##닭
##하셈
##닉
앎
##아비
##나리
거르는
##기까지
하는것도
사다
사기를
몫
마시면
안하네
##만은
보유
한시간
내친구
못버
##상대로
일이다
애플
우습
##버스
##버버
수천
여자나
##장난
니랑
니들도
요청
먹으라고
##할려고
##할수있
우리를
생각해야지
공연
##녀들은
도착
건설
같은게
##실이
##걸린
됐다고
장식이
장착
줄서
##준거
동포
감고
선처
일본인은
##한다던데
##급이
##집행
왼
양육
몸만
꼬치
보고싶
허영
날씬
정도의
그만좀
있을까요
받았어
환상
뺄
뺏어
##사람도
태풍
돌아다녀
떨어지고
떨어지면
김대
이미지가
방송을
나가고
누구랑
끼워
풀려
바가지씌
붙어서
사랑이
사귀어
빡치네
있나봐
남편은
##규직
드라마는
못생겼어
##ᆻ던거
성형외과
연애는
상황을
이기주의
##ant
정권교체
판결이
기어들어
읽는
사망자
##냄새가
든든
핑크
신기해
##웃기네
전문대
우크라이나는
감옥에서
##혐오
휘둘
전기차
쥬지
배고픈
스토리
숏박스
언젠간
굶어죽
효과가
담배피는
허구헌
유기견
의외로
웅앵웅
아지매
23
vs
뺴
ㅣ발
##뱅
##쿨
##컹
이놈의
##라구
##하도록
그린
나같아도
거꾸로
##기능
##시마
가니까
사리
사내
안아
안씨
안해주
여적
자퇴
정수
대수
대본
일방
##부랭이
기를
우기
수동
개망
개밥
개고기
노비
부러워서
##더군요
##장한
##던거
먹이
##내기
##성화
##민족
피지컬
##심은
소멸
##질까
##안하는
저런것들
난다고
##없나
당하지
##까지만
장비
구려
구별
치지
감아
없는지
벌을
하나의
쳐먹는
##병으로
들어올
안되니까
간호사분들
본적이
올라서
##달고
##망정
##반에
했으니
중국인들이
이상이
등에
필라테
##ᆻ나보다
##코인
역겹게
20살
약을
김정은
통계
싶어도
자살이
만들어야지
텐
보여주고
누구보다
금붕
트집
##꼬라지
붙잡고
흐름
모든게
여성이
찐따야
어려울
어렵다
상관이냐
꺾
저거는
낮춰
드라마가
조선족이
##십쇼
최고다
일반인이
벌레들
축구를
색깔
스쿨존은
해줘도
손흥민선수
볍신
즐기는
간호학과
억울하게
않을까요
##자리에서
말해봐
##탱이가
그러고도
문화가
면허증
자기들끼리
룸싸롱
주민들이
현대차
땡중
일제시대
리얼돌
고려장
어머님
갱생
빽빽
알면서도
##joy
광화문
떳떠
퉤
##ᆨ카
##ᆹ신
그에
##나니까
##시하는
사죄
지만
조리
안받아
여겨
##대상
##주나
##주셔서
##는데도
아니가
그러던데
말려
정서
못나
못하잖아
일하는데
##부러
##부에서
잘해주
우회전
좋네요
여자라서
미등
제동
버튼
많긴
##할거면
##봤으면
살던
소통
소굴
왔다가
비제
비벼
비웃
들먹
중에서
##빕니다
당했어
알어
##것네
##있습니다
됐냐
신문
##당시
굼
엄살
거지야
##함ㅋㅋ
##쳐라
일본도
##중인데
##줘요
자기야
하나님
안되는거
##됐어
심장
##셨어
저렇게까지
망했네
잡지
똥통
사고나서
이상한거
틀림
##다는건
국민들을
길어
생겼던데
이거는
뽑으면
2000
한다면
볼만
큰데
처벌해라
된거지
##했다던데
바껴
기사는
기사들
대단하신
임기
테스트
##승차
가슴은
아버님이
풀악셀
충청
뻔한
조금씩
##브레이크
도로는
쫒
올라온
무시해
밀려
쌍수
주변에서
퍼뜨
답답해서
빵댕이
건가요
기어오
6개월이
불법주차
문신충
악마가
이딴게
늙은이들
맡아
맡기
##축구
련이
##ish
##멍청
16강
안타깝지만
뚫린
스토커
일본어를
자고로
섬나라
냉장
자업자득
##최고
위드코로나
토나올
귀찮아서
대다수
철저하게
하얀
라이브
소방관
노키즈존
##지덕지
he
떵
##옹
##뎌
##5년
##뽄
##이형
##지에서
이는
이따위로
##다음
##겟
##로드
저럼
하더라고
##러가
갔네
가겠냐
가려서
목이
##사형
있는것
햄
했어요
##마니
아니까
그러더라
##보냐
##엽
대주고
못이
인근
##치다
##치워
생선
잘한다고
남는
남북
개웃겨
차서
노벨
미루
미칠
얄
##하고싶
고정
##세용
##모로
주니까
많으니
##미는
##성으로
얼만데
할것
들키
##해서는
##개발
저런데
저런식으로
입어도
않나요
집앞
받음
##교사
돼요
눈으로
##당초
##명은
##배는
일본말
##중이야
손주
자기들은
과일
알았으면
참수
서행
##재산
탓이
##경이
친하게
안되겠다
물가가
##한다더라
##해야하는
실행
사람이라고
##파티
##받으면
욕은
##ㅋㅋㅋㅋㅋㅋㅋㅋㅋㅋ
패륜
얘도
얘들
완성
짜고
수준은
끄고
그렇잖아
사고방
몇백
##불견
##천지
확정
절단
생겨가지고
돌아오
인정하는
필요합니다
자식들은
혀를
이유도
나가라
정부탓
지역은
하루하루
잠만
평생을
삼가고인의
체크
얘기해
장난아니
모든걸
사랑을
##취소
잘생기고
챙기는
##퍼센트
올라오
안타까워
뿐이다
범죄자를
50키로
당신들이
##들이랑은
뚱뚱하고
털바퀴
해줘야지
빵꾸
바꿔서
##먹었네
취급하는
어이없다
좋을텐데
등쳐먹는
등쳐먹을
쳐다보는
포기하고
꿈꾸
상태로
이럴때
블박
개웃김
진세님
##갖고
징그럽다
입장에서는
한마리
기도합니다
관광객
닦아
##ㅅㄲ들
왜저래
순수한
enjoy
기저귀
더치페이
히키코모리
떳떳
쉐
ㅅㄱ
ㅎㄷㄷ
##뵈
##룬
##쑤
##ry
##라비
그간
저한테
갇
가봐야
짖어
마구
다큐
자발
보나
말해서
내뱉
정떨어
##의가
못쓰
못했어
##국의
뭐함
애자
##수있는
잘했다
개짜증
것임
것들을
미띤
니한테
고독
죽도록
주정차
먹는게
전도
##왔네
##와중에
생각하는게
##좋게
##저래
남자야
##졌냐
##녀들이
중학교
입사
당했으면
국군
##선수가
##있을때
신나게
눈길
##당해
어떠냐
동아리
방구
##벌어
##배우는
발가락
간호사라고
##해야죠
##관련
올려서
##받는다
##티즌
잡은
##군인들
아이들을
이상하다
해야할
싶다니까
만나야
나잇값
호흡
돼지들은
학교는
카카오
토쏠
형제
항문
##알바
##후보
뜨는
운동도
운동선수
다녀온
배우들
트레이
점수
시키지
직업은
여친한테
어렵지
빡치게
미쳤나
암만
남친한테
남의나라
##나오면
조선족은
정신차려라
학생들이
뭐라는거야
꿀꿀
이쁘게
##훈련
지하철에
아저씨들
이용해
아닐까요
흘리는
펜
예전부터
쓸모가
그정도로
소문이
쌍용차
걷는
오징어게임
캠핑
자신감으로
비호감이
##감독님
말귀를
으이구
##늦게
말대꾸
really
wor
was
쯤
츄
##쉐
##ᆻ단
##퐝
##ie
##뼈
##지요
##엉
##엘
##나온다
##자네
##자동
##해진다
##거려서
##기꾼
가운데
마녀
다니다
안오
안티
안죽
한판
해놔
##마인드
내다
내눈
##하는건데
대회
못먹
애엄마
사람인가
##ᆨ이면
노땅
부른
##되기
밋
##라고는
고분
고릴라
##차고
주댕이
##내리는
전학
싶겠냐
생각한
생각좀
남자애들
##터리
##과제
##실을
화물
됐고
신이
신념
나라면
정신좀
스킨
##날이
##날에
반납
서류
##계절
원조
##경기
학점
놈도
돌리
이번주
꼴불견
없어진
분탕
소리나
욕설
인생에서
빠질
수준임
애들이야
박는
그거랑
편안
출렁
##이랑은
먹고싶
단지
##잡는
무서움
겨드
징그러
병원이
처벌은
어린이가
써야지
##억을
크지
글로
걱정해
보여줘야
시켜야지
터지면
프레임
붙은
좌우
자랑이냐
잘생기
미개하다
벗은
안타깝네
뿌리는
출신이라
##해줘도
양아치들
##인간이
배워야
악마같은
늙은이
자연스럽게
부끄러워
부끄럽다
버려라
갈아엎
더럽네
묻은
마인드로
죨리
할배들
160
의무화
마렵다
마렵네
부러우면
발악하는
옳은
꾸미고
못봐주
트로트
툭하면
곤란
촉법소년
돌림빵
꾸준히
무임승차
1호
90년대
칸
##눌
##떵
##ust
##if
##갑니다
이꼴
##하에
##하더라고
##리겠다
어색
##자라
##자들도
나는거
났네
거에요
점이
##시급
##을거
다치
여동생
한건데
해쳐
없거든
그러는지
그러는거야
말까
##구들
일하면서
##으로써
오만
오우
수염
##일까요
##우니
제2
더워
드론
비꼬
들지
##었나봐
##앱
화형
연결
연락이
##있는지
##업체
##난리
장식
##남들은
##방은
나라야
구는
매춘
한국와서
거지도
운이
있는건
벌벌
반도
뒤지면
##끼가
경계
서운
발상
##산이
같아도
뭔소리야
법과
나오던데
다니게
맞았어
##감으로
패는
얘기는
##릴듯
수준이야
##권도
##인가보네
찌든
번에
잘못이다
##씩이나
확대
태반
초대
죄지
생겼잖아
역시나
자식한테
##하기로
여자들만
정부의
걱정된다
변경
대학도
탈을
어쩌면
싹수가
나온다고
정신병이
체포
철원
집에나
히스테
본인의
의사도
영화관
##뜩이나
##곳으로
생기고
슬픈
뒤져도
벌레같은
사장님이
옛날부터
##해줘서
그딴식으로
떼법
##놓는
흔한
흔드는
피곤하다
깔고
인구감
노숙자들
선택적
직원들
검찰이
꽂고
미치겠다
잊지
웃긴다
덮어
끔찍한
고딩들
when
사람죽이고
운운하는
즐거운
왜저러
##쫓
##rom
오죽하면
청와대
욱일
엘리베이터
펑펑
벙어리
1박
2만원
all
de
good
ta
##ᆺ는
##ᆺ집
##ᆨ서
##ᆻ누
##ᆻ자나
##츄
##are
##pl
##지켜
##나가서
나까지
나을듯
##롬
##으래
가증
사살
조개
##려구
##려다가
보는게
한입
##래기
##보러
내서
내꺼
##국에서
일해서
##신을
되나요
우주
##바에
개입
ㅋㅋ그
노약
부숴
너무하다
벗기
많다는
##금이
##ᆻ다면서
##내라
##왈
##심으로
할만
우리랑
우리동네
공통
빗
비둘
봐요
##질만
##없는거
굽신
거지처럼
치안
선임
싸잡아서
의젖
인간이네
하나요
경선
##혐이
머리에서
문제인데
##셔츠
실천
본보
급하게
코에
망한다
욕먹는
쓰레기통
중국으로
다른사람
아이폰
후진
최애
몇살
파렴
행님
명품이
길바닥에
존예
절벽
##거리냐
제대로된
폭파
짱꼴
찍혀
인정을
한다며
볼품
종북
씨게
##하시지
##을까요
난리나
크기
##알못
##메이션
어쩌다가
팔다리
뻔하다
현실적으로
음식은
찐따들이
흑인들은
빡통
어느병원
빌어
때려도
영화는
못생겼다
##나오네
로맨
숨기고
훈계
##롱이
불편한
오빠는
뭔가요
나올까
피부과
쪽팔린
이용규
30키로로
효율
련들은
어울려
국회의원들
기회가
것만으로도
애니메이션
덩치
귀찮게
발악을
가치도
삥뜯
저급한
처박혀
##트롤
아메리카노
##ㅎㅋㅎㅋ
오질나게
불공평
일제강점기
7시
fa
mbc
ㅠㅠㅠㅠㅠ
##쟈
##🫶🏻
##가는게
이목
아부
##나나
##자임
났는데
거렁
##해지면
##시원
가뜩이나
##인건가
지연
맑
시야
안하
안하는게
안어울
여당
여직원
해줄게
진화
##겠고
말대로
낸다
##스러
대하는
대주는
같어
##상한
##상품
애잔
##으론
##치한
##신다
##신거
되더라
우파
##드로
##같으니
주무
먹던
만만한
##할꺼
##내요
##적이네
살처분
하는건지
드네
공시
와도
##번째
들으니까
##녀석
도려
##분의
문어
받냐
배를
구석
어떰
매니
치어리
위조
일본인들은
에너
##형으로
경우는
경험이
##나라로
실업
얼마전
관상이
외치는
없었어
없어질
새기
새삼
몰입
##란걸
분석
욕구
꼬매
꼬셔
##군인
추락
수준이다
놀리
박쥐
해야돼
나왔다고
딱지
갈등
멍청해
악법
될지
답없다
딸이나
연예계
처벌해주세요
몰랐다
몰랐는데
인성을
대학을
탈락
금액
##케팅
바가지로
##00만원
예쁘더라
##찍이
##찌개
철판
물어보는
##사고가
##나옴
성형을
대부분은
사건은
퍼트
비싸고
없을듯
##먹었지
인권을
앉아있네
사라져야
##인간들
심각하다
피곤하게
15년
ㅋㅋㅋㅋㅋㅋㅋㅋㅋㅋㅋㅋㅋㅋㅋ
이것이
도태된
술집에서
컴백
모를까
##ᆺ어요
##가락이
개빻은
스토킹
주장하는
예수쟁이
마주치면
시급하다
제조사는
스노우타이어
##바랍니다
노트북
3일
from
런
뻑
뿜
씩
##뚤
##co
##🤍🤍
##이노
##지길
##가기
이뤄
##하구만
그사람
##겜
하직
하길래
가로
가요
##한걸
사패
다하고
##댄
##주려고
한건
해제
없는거야
##마나
말해야
내려서
무면허
오케
##밝
##는거죠
미술
미투
##일때
죽고싶
##세가
##적임
##민들
피를
할걸
비트
비율이
##었네요
중학생
도라
건드려
상실
##분별
알잖아
알겠지
##했네요
거지들은
##이징
자기관리
하나를
과도한
음흉
좋아하네
심한데
학력
간호사의
뭔일
법대로
본적
양산
꼴깝
까마
병역
속아
우리나라를
똥차
운전도
막는
찔리
웃을
작동
작품이
두면
팝
한남유
##ᆻ을걸
뺀
돼지같은
티내는
인정한다
이러면서
##독한
살인사건
검증
##맞은
자살한
걱정하는
너네가
잠수
독박
잡아다
##놔라
했었는데
물어보면
괜찮다고
##현실
로리
팬들이
##십니까
벌레가
있을때잘
안전하게
해줬으면
위험해
다르네
해결될
이쁘다고
가해자를
제정신이냐
피곤해서
버러지같은
뚜벅
하시길
저지르
걸어다니
바다에
ㅅㄲ들이
짓이냐
안타깝습니다
새끼들
한명도
띠꺼
만만치
베트콩
국산차
왜그러냐
조신하게
껄떡
게을러
목욕탕
아나운서
더더욱
happy
치어리더
up
낭
쪄서
##ᆫ즈
##깽이
##ᆻ게
##팩
##cu
##지ㅋㅋ
##라더니
그놈
그자체
##면에
##해보면
하니깐
하느라
사자
사려고
지져
마비
다해
보며
##마시고
아니겠어
##보네요
##보이네
말하지마
내돈
내밀
##무지
##하는걸
왜요
##구간
##의로
##국은
인조
사람처럼
잘됐다
##생을
##버릇
수정
##드셔
개법
개쌍
부대가
##되겠네
##는거는
##템
여자냐
야당
##일걸
죽었다고
주가
##한테나
소아
소년
유산
들었냐
##었겠지
##질이나
중2
중에서도
##비에
##터진
입마
당해라
집으로
##것은
예배
##있잖아
감방에
자기보다
##보다가
쳐맞고
##재앙
심함
##빠리
##한다니
##매장
##인들도
급식이
몰상식
병사
##릴까
짜리
짝이
추정
평일
박수
##료가
해야하는
작살
작년에
##느님
##련들은
번역
명단
받아도
출국
길빵
태도가
엄청나게
호빗
언젠데
사회부
짱퀴벌레
악으로
이해는
범죄는
청산
청주는
약자
필요함
짓이야
##약을
병원도
형수
##올려
마음도
검사가
정치에
정치인들이
자살을
광대
테이블
깨버리고
깨닫
요샌
별로임
짜증나서
렉카
##꽂
##시키자
##쪽은
붙는
정상적으로
안보는
##찝
여친도
##브라
보이네요
의사는
물어보고
넣으면
영화를
##나오는
각종
느낄
바뀌는
빈부
와꾸는
건강하게
탓만
튕
가져와
맛있다
맛있는데
지켜야지
방구석에
나대지
낙하
여자애들이
심각하게
아쉽네
놔두고
버러지들
안된다니까
잘라야
재수없는
큰일이다
랜
분위기가
갑질하는
괴롭혀
녹아
움직
집값이
대박이
닦고
김치녀들
열등감에
뜬금
보조금
유치원생
엄벌에
낚시
videos
비키니
프랑스
much
허언증
겨드랑이
fun
gre
븨
퐁
##꿈
##퐁
##ㅇㅈ
##집니다
이대로
이따구로
##하단
##서니
##기면서
##으려나
하길
하기는
##시까지
가고싶
사단
사이다
모스크
마감
마사지
안일
안했는데
##만든
##려다
##댈
보댕이
##주길
없었을
##제는
정은
대세
대줄
무인
무작
뭐라는
기만
오나
오네
잘돼
##버러지
##드러
##드냐
##정말
##ᆨ이라
미화
야간
##일지
너무나도
먹이고
##말에
전두
그래라
맞지만
남자의
##긴한데
들었나
##든데
걸림
##안해
입이라고
##없을
않으면서
씁쓸
간신
화보
##선비
##있더라
재택
##당하면
줄고
치냐
감소
의지가
벌리는
애들인데
하나에
과잉
알아들어
좋아하면
원인이
원칙
원룸
##산다
##됐대
부모의
##급으로
법에
법의
몰수
##반대
민경
술먹
놀려
후기
후달
30이
막을
밥상
사고날
친구들이랑
등이
귓
목줄
##불만
시간은
빼라
초보
공부하고
##잡이
사회를
학교도
될걸
죽여라
죽여버릴
답이지
한다는데
##죽어
뇌도
##토화
살인범
##했다더라
온다고
쪽으로
순식
순위
있다는게
알고보니
금연
금융
잠도
아버지를
별론데
늘려야
##언스
삼류
##딩이
시키자
안돼서
벨
##않고
##놨어
신경도
중요하다
##많다
뽑아버리고
가정을
##십시오
##십시요
노인들이
눈치를
##해줘라
그딴거
그런가봐
방법은
##스럽지
않고서야
헛소리야
헛소리를
문신한
해외에서
어른들이
30km로
##대한민국
널려
엉덩이에
싸이코패스가
##시대에
영어로
죶
깡으로
케어
웬만한
싸지르고
막아야
쿵쾅이들
기술이
무뇌충
다닌다고
넘어가면
엠2
보조제동
나머지는
##ther
토나옴
넷플
아무렇지도
시작이네
둥
##껑
##꿍
##쿵쾅
##ain
##라는거야
##어진
아따
아시는
아껴서
##아래
어버버
나간다
나부랭이
거도
##해줄게
##거니까
##거같음
##거같다
##기술
하겠습니다
닳
안가고
##대냐
##대는거
##댄다
자리가
한정
해처
##보이지
말던
내년에
대낮
인턴
일기
뭐든지
기차
우욱
##음주
남페미
개성
개한테
차에서
ㅋㅋ너
##되네요
것인가
미ᄎ
니얼굴
##일수도
돈받고
비어서
##졌나
##안전
집유
##했나봐
눕
눈썹
구분이
한국인들은
##타격
##살고
##살다
##배가
싸가지
##족들
에게
##병이
원인을
##경찰
강조
놈들도
나오는게
계좌
다니니
열받아
급이
소리도
욕먹을
##ㅋㅋㅋㅋㅋㅋㅋㅋㅋㅋㅋ
##두리
##놈들아
넘치는
##설치
여기도
나이트
받아라
편히
피해보
빼먹는
폭동
혼나
채로
한녀랑
짓도
판사들이
싫어요
찾을
이러지
줮
저럴까
사람들이랑
항공
걱정을
깨고
게임하는
외국인들이
지나간다
##목이
연예인들이
##색히
레이
##꽃
##그램
국가의
아프다고
폐쇄
앉혀
아빠한테
말아먹
결국은
남친은
디자인
##ㅎㅎㅎ
몸매는
안전한
정권은
세계에서
개념도
개념을
##해줘야지
그런데도
볎신
승부
이용하는
차량이
##생각을
때문이야
청소년
뛰어내
##ess
노답이다
놀랍다
화장실에서
우리집에
클럽에서
잘난척
드러내
대우를
소비자가
새77ㅣ들
tv에
긁어
단순히
섹파
진동을
득실
같으니라고
노망난
공중파
사창리
atm
개이득
하찮은
택시기사가
훠훠훠
금붕어
ab
ㅈ도
##벙
##듀
##ᆻ더만
##빤
##zz
##이후
##지는거
##가에
이자식
##엑
어매
납니다
거들
거죠
##해가지고
##거림
하마
모인
지려
안먹어
##까고
여고
여고생
##사냐
##사이트
보지
보입니다
바까
##제품
못하는거
애완
기세
오류
##신고
잘해야
잘어울
되도록
우르르
##밤에
수다
개랑
미워
제보
고고
주소
많구나
##민경
살겠지
소화
##화국
##소니
##조작
##식도
남자에
남자애가
##져야지
##었더라
##때려
걸어서
걸어가
상인들은
성능
처형
배상
장모
동맹
##핍
##피셜
##날두
의학
곽
알았음
##재해
타격이
##법에
원작
발이
안되서
머리털
##셔요
##셨다
나오는지
본데
돌리는
분질러
팰
술도
앞에선
추모
추진
중국어
##령이
엄마를
날도
박을
해야하는거
파이팅
있을듯
받아들여
편지
길바닥
절로
많아도
##갈등
폭주
악의
무서울
##강도
##하기를
회사를
정치적
기사에
영상도
##만원씩
##는것은
대학은
##페스
댓글로
##색기
있냐고
충성
##님이랑
생각해보면
다음엔
국가에
제설은
##랄까
폐암
울어
교육은
##먹어라
##사고는
있었을
##덕에
클라
##평가
맞는듯
기본이
밟으면
비싸서
자동으로
혐오스럽다
도와줄
거리는거
##없어요
맛있는거
저래도
떨면서
사라질
다행이네
##하던지
30키로는
안된다는
##하겠다는
실력으로
아마도
한국말을
흙수저는
압도
해보자
녹음
실패한
샛기들
몇번을
일으켜
집구석에서
멋지다
쭉쭉
트롤
amp
같잖은
흥민이
패배자
대단하십니다
불매운동
##くなくなくなくなくなくなくなくな
찝찝
연쇄살인
곰팡이
불태워
미꾸라지
여적여
필라테스
짱꼴라
이목구
사회부적응
녀서
숭
쿰척
##냉이
##쿄
##ᆽ은
##지더라
이따위
##닦
##하누
##어질
거둬
##해체
저지를
##시작
가속
모태
졸리
시달
안그래
자면
한파
한방에
해석
해줄까
##보이고
말걸
##무슨
##였잖아
왜들
정체
대는
일자
##부림
오짐
##치는게
되야
되긴
되려고
남초
##드가
개잡
##간거
좋습니다
부리고
##되길
##원을
##원으로
##장창
믹서
고혈
버는데
##오오
주로
##금도
만세
그런애들
##잖아ㅋㅋ
피워
##소개
생각하는거
드라이
비디오
유죄
도우
##비언
입맛이
난동
성적이
쓰게
쓰는게
처먹을
화난다
##선거
##린지
나라지키는
구해
한국남
한국여자
##명복을
##행동
##쳤어
쌓아
인간이냐
경고
경차
경력
물러
심하잖아
실물
법치
열애
##감도
망했어
##받이
분장
까발
##티브
병력이
추워서
놀면
아이들은
아이디어
후반
후쿠
그렇구나
회장님
찌지
##룡
해야하는데
받아주
공부하기
천조
끝나는
떠넘
가족들도
대한민국을
축소
빨아먹을
##는것만
터지는
##펜
표본
충전
체력
안돼요
자랑하고
##백신
헤어지고
서울은
선생이
털고
답답한
가난해서
즐길
경제가
승객
##뒤에
했다며
차별하는
든게
직접적인
책상
잃고
노숙자가
존경스럽습니다
착한척
기회를
위해서라도
##뭐야
##칼로
촌구석
시민들이
some
급식충
##문제가
맘충들이
모아놓고
시절에
등하교시간
기가막
2찍들
소비자
레즈비언
도시락
상종을
##맥스
##🤬🤬🤬🤬
핥아
비호감
봊이
조별과제
썸네일
great
##즉
##ᆻ거나
##넌
##뻑
##ᆿㅋㅋㅋㅋㅋㅋ
이네
이분
이득이
##리긴
##리던데
어캐
##시는데
가질
사우
샀다
사유
사달라고
마케팅
안생
안봐
##만들
##깍
##까는
##사실
있으신
없대
##마을
내쫓
##스코
인제
인방
인서울
잘했어야지
##벗
##정한
버릇이
돈많은
그랬지
##심도
살어
싶으니까
할카스
하는짓
군번
군단
##년이네
##안하면
성경
불이
##하지는
국정
국가는
##것같은데
뱀
배송
예를
##새가
##있으니까
재는
굵
정신적
동태
선량한
##중인
알아요
좋아하고
쳐들어
하지말
들어가지
원전
##머리는
발을
발사
심하긴
##빠져
듯이
##한답시고
##따리
없어지는
망해야
새치기
분야
까만
민트
똥냄새
수준인
운전자는
애들이라
그렇지만
최종
##석진
10명
해야됨
##좀해라
##느끼
##에게만
파트
명치
목매
나이는
피해는
생겼음
언제적
설치고
폭리를
돼지들이
범죄야
채팅
##점은
답게
믿음
병원을
뇌피셜
통통
산에
방송하는
정부에
걱정은
깨어
터뜨
틀딱은
지나가면
충고
사기치는
경찰들
웃기지도
공무원들은
아빠가
상관없이
사귀냐
껍
꺼내서
미쳤어
엉뚱
못생겼으면
느끼고
탓하는
교수들
선수는
위험하게
옛날엔
##스타일
공개해라
임신한
웩
도와주는
설치네
##ation
인권은
너랑은
협조
엉덩이가
아쉬워
아쉬운
시위를
ㅋㅋㅋㅋㅋㅋㅋㅋㅋㅋㅋㅋㅋㅋ
이럴거면
예전엔
들어왔는데
깡통
##싫음
그치만
쩌네
마찬가지야
look
힘드니까
짱개들
몽둥이
전세계가
나빠서
what
보이지도
맥주
##👍👍👍👍
나락으로
##바꿔
집구석에
띄워
노친네들
국힘당
구질구질하게
앙앙
무능력한
생각나네요
##ght
##9999999999999999
여가부
유통기한
명문대
앨범
거렁뱅이
무작정
1명
cou
how
jt
##늬
##펀
이전에
##하구
##들로
그들이
그짓
아플
##나올
저따위로
가면서
지린다
마니
안주
안했어
한사람
해준다
해달라
없었던
##맘이
아니구나
##보지
내장
내면서
##국인
##부름
애만
##치로
우한
남사친
개인이
차베
좋나
노재
노후
니처럼
제재
고스
너무한
버리지
주네
돈좀
먹칠
먹었냐
많나
##냄
그랬다
##성민
##한테만
##적이라
소유
##화장
싶었음
드는데
##식은
유교
들켜
##녀랑
##질에
##터져
##안된다
입법
쓰나
##했는
배꼽
##까지도
연상
돼야
치어
치면서
모르지만
얼굴이나
얼굴공개
어디냐
따지고
에혀
반미
뒤져서
좋아한다고
##병대
발기
안되요
안되는게
##됐는데
문제로
부모들은
아무말
나오잖아
##달에
다니나
분은
분들도
패널
중국인은
아이디
후륜
회원
친구를
파란
솔직하게
않아도
갈게
시간당
##림픽
무섭고
혼란
티나
재밌다고
인정할
##점에
답임
약해
##죽음
형벌
##하나봐
혁
싶어하는
난리치는
방송은
정치인이
글레
지역에
변기
변화
터는
다녀도
풀고
휴지
걔네도
용감
사형제
##값도
캐나다
##하더라도
어느나라
암내
##많고
헤어질
자신감이
바라냐
증가
택시비
낳지
정권을
교수는
마스크를
위험하다
다르다
##놈이네
넘어갈
분명하다
똑같다
간호법
쪽팔린다
어이없어
봉쇄
평소에도
##잖음
명품백
잘라버리고
련들이
유전자가
이쁜데
가수는
블루
버스에서
할배가
시원찮
도둑놈
무뇌아
축하해
테러리스트
국민의힘
요구하는
우동사리만
킹받네
모가지를
캠프
싱싱
얌전
얌전히
책임이
이쯤되면
##플렉스
틈만
##쌤
반지하
이시국에
토착왜
단단히
공공장소에서
버르장머리
휠체
허구헌날
낙하산
28
4차선
more
se
퉁
##ᆼ크
##us
##40
##ha
##💙💙
##지네요
##가야지
##고분
##하길래
##하셔서
##들인
##아노
##리려고
##자다
##자님
##해보고
##으실
하시면
##시도
##러니
##러스
사냥
모셔
안돌아
안지키
안바뀌
##만을
여신
##대전
보기도
했다가
진입
##무기
못믿
##상공
##치더라
##수칙
잘사는
남에게
수수
개찐따
차례
차원이
##ᆨ이라도
##더냐
것에
것밖에
고구마
죽창
##오스크
돈이면
만하다
만남
전업
살리는
소득
소원이
할려고
드나
남자면
남자라고
봤어요
들린다
돕
도배
입지
##분간
당했다고
당뇨
성윤
성전환
처먹은
처맞고
배에
##있노
##있던데
신사
줄만
##용이
감금
의해
없는듯
##족을
벌었
쳐먹은
들어봐
교정
##한다면서
지금부터
실질
빨면서
올바른
네이
네비
네티즌
열라
##티비
얘들은
앞을
했지만
우리나라의
똥이
아이유
최강
막걸
취한
데는
나와라
파리
귀천
환멸
갈기
출동
확보
##징병
공부할
##월급
미국을
##점에서
##추고
판사야
종종
메퇘지
통장
만들자
##순위
걱정이야
##는것을
화장도
사실이
삼일
아프네요
어렵게
담배빵
미개해서
울면
동네에서
낮에
육군
의료인
시작하면
50km
바뀌면
관심종
깜둥이
튀겨
핵폭탄
혐오하는
쓴다
불법주
##one
면상을
사라지는
쪽팔리게
어이없는
민폐야
강원도는
흘리면서
안가네
바꾸면
흉악
푸는
꿈을
##했을때
##een
하늘에서
놀러가
그것이
관련된
무섭더라
징그러운
##짱깨
시청자
열폭하는
냅두
한국어로
참고로
마누라가
잔인한
자세히
줄줄이
입국금지
##우리나라
내세울
돈버는
##💊💊💊💊
알만하다
형사처벌
진도준
식물인간
배부른
펭수
빡세게
삼청교육대
고분고분
1분
3차
ho
냥
쑥
팽
ㅐ미
##ud
##os
이사람
##라는거
##리즘
##났는데
##면제
나사
##로우
거리가
하타
하던지
가던
가보고
가보면
사러
사와
모양이
지시
지속
다나
안한다고
여권
##대니
보살
보기가
한편
##마디
##보라고
##보여서
말라서
말든가
말하는거야
##여자가
왜곡
정이
##스러울
대전
못받
못잡
인민
무게
무사
묻고
사람이다
오함
잘했어
남발
수익
##드리고
개봉
개박살
노라
부적응
##같더라
##르몬
겠다
게이는
주에
돈까
##낸다
전직
##성심병원
드냐
##식당
봤다고
군필
걸음
저런애
##없으니
성차별
성욕이
쓰라고
##것처럼
화풀이
연합
##있던
장식으로
구두
엄빠
##준비
스파
방에서
방귀
##행을
싸울
많이들
따고
벌면서
자기들도
알아보고
교환
강냉이
##셨나
뭔소리
놈한테
돌고
다니는지
코치
망나니
꼬튜
##ㅋㅋㅋㅋㅋㅋㅋㅋㅋㅋㅋㅋ
잡종
현장에서
민초
속는
키오스크
했고
달라는
춥
추접
똥물
밥말아
취해
10억
##련은
번지
만나기
##돌림
받았다
않았을
국민성
초토화
##갈때
무섭게
무섭지
##버려도
돌아가서
될까요
##운전자
채찍
징계
필요하다고
찾고
##죽이
몰라요
산부인
정치인들은
기사로
나갔는데
사이언스
백신은
탈탈
라떼
잠자리
별로더라
착하고
싹싹
정상인이
겁나게
궁상
상관이
빡빡
100년
책임지
팬들은
관리도
굴려
굴리는
관심을
바람을
뿌듯
##교육을
##남이랑
눈치도
거짓말이
마스크도
씌워서
튀어
다르냐
사과를
염산
없을텐데
집안이
맛있다고
유명하잖아
떨린다
흘려
전화를
초딩들
재수없어
던지고
화장실에
걸러라
지나가는데
새벽에도
밀어버리고
사라졌으면
띵
##ㅎㅎㅎㅎㅎㅎㅎㅎ
젠틀
##뚜기
갈라치기
다양한
##1년6개월
차종이
집합소
뷔페
너덜트
아무데나
살인미수
오함마
5분
nam
wa
꾹
늬
뽄
ㅇㅋ
##꿔
##12
##이건
##이었으면
##다니다
그들의
아픔
##시나요
##인권
사원
사느니
지인들
다문화
##사기
한발
한창
아니요
##스쿨
못하더라
일당
애꾸
기자들
오랑
##버튼
##드라마
노무
부심
부르고
니거
주자
주입
##노릇
전신
핏줄
싶습니다
비아
봐주는
##단에
머저
상승
상대가
난독
밴
연휴
##같은소리
장사가
스무
##피스
##위험
감시
방문
이런것도
##쳤네
일본놈들
반은
과대
음란
이제서야
쳐먹을
안되니
간호사들은
실시간
올리지
양쪽
맞았는데
코로
욕하면
##티가
앞길
빠를
똥꾸
놀지
놀리는
적절
별걸
##지는건
몇인데
번을
번째
사람들의
귀머
명도
받아주는
##육수
빼는
절도
많아져
호날두
청원
카타
##죽여야
떠서
떠들고
##플레이
통합
만들어놓고
텔
북한도
아까부터
아까움
낫다고
##빨고
놈이랑
챙기고
동네가
괜찮음
넣을
빌라
영화가
있었냐
밀가루
##센징
아줌마들은
사건을
노력은
안전운전
여자친구는
접근
퍼부
밟은
씌울
돌아가고
기다릴
짧고
짧아
에이스
##렁이
공격하면
타고난
이걸로
신기하네
빠져나
결과를
컨트롤
##자식들
하늘이
환장하는
ㅅㄲ가
꽃밭
##층이
급식들
물고기
아닐텐데
잊혀
항소를
국방부
보자마자
예민한
색희들
맥락
life
예수쟁이들
셀프
역할을
타이밍
살인죄로
이어폰
깊은
최저시급
은혜님
전국민이
벤츠
포르투
퍽이나
탄력적으로
들러붙
1호선
jtbc
샹
##ᆯ듯
##ᆿㅋㅋㅋㅋㅋㅋㅋ
##가로
이과
##도리
##하듯
##나네요
##자인데
거라는
##거린다
하려나
가림
지고
지석진
##욕에
안치
안가는
안듣
여보
여학생
##대신
##주들
없는것
##겠누
##마라
아니었음
말이라도
못받아
##국밥
##에서나
일종
일처리
애쓰
좋으니까
부러운
##전문
것보단
미흡
미접종
##같습니다
고자
죽었네
주방
주물
##놓아
##미친
##먹는거
전동
소상공
생각없는
생각난다
##동에
비린내
유학생
군인가
군무새
셋이
##비만
머라
상시
쓰니까
##처참
간지
간병
알수
##했노
받네
##키고
##키스
예외
연출
됐나
한국인들이
어디든
따박
벌리면
##계에
발빼
친중
물타
##집이
법이야
법좀
본성
빨갱
사람이네
급한
샘
현상
키워서
완료
했습니다
추하게
운전대를
웃는거
취준
별창
데도
##적으로도
잘못돼
명령
한남충들
##입은
##한거다
초코
악용
돌아와
딸은
카푸
멘트
씨를
여자들을
저러나
한심함
##하시는데
이래놓고
자살이나
음주운전이
극한
##후에
터지고
어쩌라는
북한으로
##목숨
아까워서
##언론
화장이
##골이
리친
체인을
얘기만
직업인데
알바하는데
장난감
보이려고
뛰어나
결국엔
##많네
##덩이
서울에서
맞는말
프로제
배달하는
혹시나
양심없는
보호자
##ᆯ리맥스
노력하는
밤일
꿀빨아
돌아가셔
염병
기다리는
##먹었잖아
매일매
##봉사
봉으로
##ㅜㅜㅜㅜ
교통법
극혐이네
데려다가
기레기들이
좌파가
잘생겼는데
실력은
##밀어
멀쩡히
바닷
##효과
후회하지
황금
놓으면
선물을
징그럽게
박살난
한강에
전체를
만만하게
신경쓰지
남탓만
언젠가는
가둬놓고
완벽한
임산부석
만약에
송중
군장병들
대책을
##아파트
남겨진
아름다운
알아봤다
27사단
적극적으로
전기충격기
현명한
낄낄
기상청
찌그러져
뺑소니
보적보
명백한
왔다갔다
떵떵
3개
3만원
7년
an
ad
im
man
룰
몬
##갸
##ack
##이요
##이너
이때까지
##닮
##라더라
##서로
##들게
아부지
##자너
##야할
나약
거길
##해지지
##기록
##으시길
하급
하겠다는
사줄
모이는
몸이나
지리
지정
지킨
마신
조차
다냐
안내고
##사리
자글
자칭
한다니
##마려
##짝이
##였을
##의미
##의료
대변
##국을
인문
일개
##부탁
애당초
사람보다
기타
오지는
잘하는데
우연히
수상
개망신
부셔
야쿠
##진데
많네요
##내내
전까지
전달
##심에
소각
할꺼
공황
공장에서
비열
중에는
도발
##안가
저런애들은
난처
당했다
불로
불을
##트를
알텐데
알콜
재혼
신혼
매매
매사에
한국에선
한국땅
치가
치과
감탄
선전
느리게
인간들도
있는듯
결제
하나봐
과도
과학이
들어보면
탔는데
안되어
머리채
학습
학부모
돌아서
꼴려
##양아치
새기들
백팔
백프로
패버리고
살아있어
똑같은데
술은
허리가
수준하고는
중국을
운전하면
최선
밥에
이상한데
그만두고
##느낌
데모
잘못했다고
명분
필터
나이먹고
출장
피해만
많았는데
죄없는
공부가
생겼으면
##너스
헤드
사회아
돌았나
필요할
김에
김경
짓만
##죽여도
된대
줬으면
군인들은
통화
혀가
한심하네
만들기
먹었다
대통령도
##알지
글쓴
게임도
어쩌지
착취
걔네들이
아깝게
사진은
붙이고
음식도
반성해라
장난하냐
보이게
처음엔
빡쳐
따라하는
100프로
때려라
드라마에
##나오게
##인거임
아줌마는
모자라서
숨기
##넘게
색히
와꾸도
정신차리고
놈들임
스트리
올려라
빵에
피부도
##웃음
맛있더라
경제를
저래라야
나대고
삶은
안나온다
달라붙
잘생겼어
어른한테
언론이
떨어졌어
말씀을
상태에서
걸어다니는
실제로는
##지않고
사이코패스가
쩌는
아픈데
빼고는
눈알을
웃긴게
부럽네
도끼로
보험금
붕괴
구걸하는
땀냄새
무겁다고
지역상인들
빨간불
앱등
가볍게
짖는
똘똘
자극적인
묶어서
not
게을러서
살쪄
치명적인
마루타
##앰플
퐁퐁
모스크바
전두환
클라쓰
bts
쑈
ㅅㅅ
##ᆺ날
##늠
##ving
##지는게
##다보니
그따위
##아다
나잖아
저기는
##시게
갔을
사탕
모니
지루
마당에
다친
안여
여포
##사업
##주신
없구만
없었음
아니었으면
아니더라도
말했는데
##젤
##뭉
##여성
정숙
##의금
대책이
오니까
##치나
우대
##생아
##생은
##바이
개구리
개혁
##간이
차선
노콘
##더기
##는거보면
##는거에요
##장수
밉
미달
##차게
더러움
##섹
먹었나
##노래
##밑
그래야지
맞으면서
얼공
살벌
##소식
공휴
봐바
도쿄
않네요
받으러
##키는
##통을
누리
돼지고
##방지
##방위
굽
매도
매주
한국인을
정신머리가
##력에
##타임
스테
싸대기
##역시
##끼리는
경영
하지말자
##충동
타지
##법도
발에
심했다
강간
간호사라는
계정
운전할
애들이지
날조
해야된다
아니고서야
두는
번영회
귀족
급발진인데
##ᆻ나봄
길가다
##갈까
죄는
생겼더라
##영토
언제는
설정
못생김
티셔츠
역겹지
청진
답없는
답변
떨어뜨
떨어지네
##정도는
판사를
맛에
다시한번
종류
저러다가
##하시죠
불쌍하게
##해줌
백신이
있다던데
깨져
터졌네
게임은
표지
생긴대로
##시키지
뻔함
보기에
##값을
##허허
제설차
곳으로
알바가
높게
년은
##않는
잡아야
아빠랑
보이긴
본인들은
사귄다
울면서
행동은
##먹었다
괜찮을
암컷
멋져
헤어졌어
앞으론
스캐
지능도
아줌마들이
의료사고
50억
창렬
양심적으로
최고지
능력은
바람에
안전이
노인들은
건강한
태어나는
##만큼은
세계가
털려
오빠들
남자친구는
연기하는
이름도
여행을
염전
스타킹
맛있겠다
자유를
##할땐
##할때는
못할망정
농사
제정신인가
생활을
심각하네
폰팔
헌터
묻지마
시비걸
몸이라도
블로그
손가락을
납작
##간호사가
큰일나
지난번에
쓸모도
노동자
조센징들
과거에
쫄보
갓양
지역경제를
쫓겨
두꺼운
유부녀
유부남
역겹더라
##릉내
##ice
절반은
굉음
##챙겨
철저한
2시간만에
엘리트
콜라보
느개비
노니앰플
융통성
고독사
트레이너
오케이
열애설
후쿠시마
산부인과
26
2배
ag
pro
롱
##훼
##낭
##챙이
##팽이
##ᆲ은
##이거나
이사가
##다면
##하겠는데
##서에
그전에
##겟지
아는거
아들도
아놔
어메
##데로
##걱
하류
하시고
사거리
모범
지은
다했냐
시녀
안이
안하면서
##사용
자부심
한동안
한계가
해볼
아니여
말기
내냐
대물
일인가
##부턴
뭐하는거야
사람이라
기존
기괴
오르는
되지도
개싸
개거품
놓아
부리네
것으로
것입니다
여자에
여자인
##하고있네
##우면서
제맛
고라니
##차원
더운
##세로
##ᆷ이랑
##오줌
줌마
돈독
먹히
만난다
##먹게
##먹음
##임금
맞는다
피눈물
우리학교
##렐라
공대
##질로
건다
건보
##터디
##안에서
입도
성이름
국히
알지만
배짱
##린다는
##친다고
신선
구라
줄여야
치여서
##탓이
##함은
선서
어디에서
싸운
따지는
섞어
##산업
간호사자격
아닌게
##셔틀
##해야겠네
법무
돌싱
##따는
꼴좋
맞아야지
맞았다고
맞아봐야
패도
##반하
달라서
짜장
똥자루
수준이지
놀라서
적반하
별의
몇천
만났는데
잘못해서
사람들에게
급발진이다
급발진이라고
출마
제발좀
빽이
폭력을
이거야
이해한다
찍으면
찍찍
범죄자는
재미있어
천원
천만원
채우고
가서도
종자들
가족들은
군인과
##움을
통쾌
쪽빠리
검토
몰랐지
##순이
##써서
척하면서
보여줄
너넨
잠잠
##벽이
뜨면
생긴건
것들이야
짜증나는
화장하고
사진이
용산
뻔한데
체험
##합리
아프네
가능하지
알바나
업로드
썩는
물어뜯
##먹어야지
암살
암덩어리
키우던
조심해야지
너희들
쟤네가
희대의
털어서
선수를
손흥민은
##맛을
죄송하지만
사망자가
미래의
소름이
안나와
흔들고
수술을
가격은
달려드는
쳐다도
련아
##ist
##했을텐데
춤을
줄어들고
불안해서
##30키로
대화를
지구에서
케이크
##이크업
계집애
##좌파
대박이네
접종률
강요하는
who
live
뽀뽀
남이사
왜저렇게
헤어지자
하고싶은
명절에
의지박
바에야
##nnnn
포르노
반려견
개극혀
과학이다
분노조절장애
햄스터
제2의
빈부격
백팔십
cg
just
un
will
콱
튼
##지라
##지르고
##갔어
##가격
그분
##자나요
저를
하기로
가자고
모유
지상
마약이
마우스
마기꾼
조기
다수
##삽
##사에서
##사관
##사망
자리를
볶
보네요
보인다고
##줌마
한거지
바라고
진리
아니어도
그러려니
##보는게
말같지도
##스틱
대상이
못해도
무정부
기소
오전
##치니까
##수하고
되면서
되네요
우기는
##버릇이
부자들
##될까
것보다는
죽겠음
주시
주려고
##먹여
맞나요
맞으라고
피방
##화로
##조치
와인
비참
중년
중증
머글
입시
입금
##없더라
##실험
화려
화내는
##새키
재범
눈감
##당해도
장소
장학
구만
정신에
동원
스태
##위는
##날듯
따른
손가락이
##계에서
##계속
들어간다
타다가
원정
심부름
뭔지도
나오니
돌려서
꼴아
망하고
샐러
##프라
##다가도
까매
욕해
병이
속을
했으니까
빠따로
똥개
엄마아빠
누가보면
별점
박아서
박성민
결혼해
데에
나이든
##사람을
못생기
이해해
재밌어요
##결과
인정안
죽여야지
되는구나
한다더라
볼수
처벌도
##토막
한심하고
먹어봐
회사도
있는데도
어떤지
대단하다고
짱깨랑
극복
백신패스
아버지도
외국에
별로인
북한에서
지나간
다녀왔어
##찍고
뉴스도
##레이드
아깝지
윤씨
싹수
용기
충동
독도
곳을
가능하냐
높아서
##고싶은
힐
처음으로
미쳤냐
귀엽고
감사한
감사해요
장애인도
장애인은
올라와
있었나
##잔치
범죄자들은
어쩔래
바뀌어야
빈민
##된다는
뒤져야지
지키기
월급도
불편하면
태어나면
개념없이
##먹었으니
돈으로만
맛있지
방법도
스트레스를
바보같이
봉투
때문이
해외로
##먼저
멀쩡하게
시비를
응원해요
부르지
날씨에
놀랐어
스타일이야
들어오고
지구가
##아닌데
센터
##끈한
노인네가
뚫고
콘텐츠
박살내
젖탱이
기준으로
증거가
영원한
예민하게
그렇다면
방역수칙
빨대꼽
음료수
머리통을
몸뚱아
##ute
시끄럽네
흡연충들
지역상권
재앙이
가벼운
##찾아
2022년
숫자
##멋대로
##아버지
exc
즙짜
유투브
살쪄서
watching
##밖으로
월드클래스
국과수
외계인
글로벌
파렴치한
매니저
2개
2명
been
mbt
##now
##이리
##는가
##지능
##하겠지만
그들은
##리즈
##나가면
##자국
##자료
났다
##해짐
저쪽
저모양
##걷
하하
하래
하체
사준
마네
너야
안갈
여잔데
##대나
##사무
##사원
##사항
자네
보는거지
바에는
##보수
내는데
##제설
정성
정유
못잡아
인원이
일상이
##치킨
##수만
##수업
##수급
남에
수령
차리는
부처
것까지
여자로서
야비
고성
##차서
덧
##몫
##오라고
그런애들은
##먹었으면
##먹은거
전에도
그랬으면
##성한
피의
##화된
할머
생각나서
공감이
남자인데
##긴다고
군기
도축
건전
##때리고
난도
##체로
않겠지
않지만
않도록
성상품
문죄
처우
받길
##회에서
신도
근대
나라탓
구네
정신줄
정신질환
##물도
##살에
##위한
이런일
어디있어
인간들아
##럽고
##줬어
음모
쳐라
##계의
들어라
들어봤어
발도
안되는거야
심정
##한다는게
뭔상관
법이지
나오겠네
##달을
없었다
없어지면
콤
까내
꼬락
쓰레기로
살아온
추는
아이들의
후임
후속
최하
10시
잘못한거
##편은
갈비
##림도
먹고싶다
태생
##거리며
죄인
사회적으로
##가는구나
어린이들
메인
포토
##하십니다
검정
검열
코로나는
음주운전자
영상으로
골수
걱정할
테니
1년6
어쩌겠냐
연예인도
둘러
사실이야
사형시켜
안보여
공무원은
제설도
음식에
논산
놈이나
자랑할
빡친다
찾아가
##있어도
신경을
환자한테
서울역
뒷광고
궁금하네요
괴로
침대에서
당신의
##막고
오래오래
슬쩍
굴어
##ers
색기가
접대
건강이
출신인데
세계적으로
씌운
sns는
이름으로
사과도
사과문
꿀잼
핵을
##도로에
빨갱이들이
덕지덕지
내일부터
앉아있는
탄탄
억울하면
안낳
커피를
취업도
달라질
물건이
버려야지
##새끼가
실수를
##었을텐데
전문직
##쯤은
어울리지
##였어도
갔다와
기회에
##떨어져
누나가
##돌아간다
풀어주
웬만하면
박탈하고
##라스틱
쿵쾅이
능지처참
넓고
겉모습
중환자실에서
부러뜨
버티고
ㅋㅋㅋㅋㅋㅋㅋㅋㅋㅋㅋㅋㅋㅋㅋㅋㅋㅋㅋㅋㅋㅋㅋㅋㅋㅋㅋㅋㅋㅋㅋㅋㅋㅋㅋ
후려치고
한마디로
죽음을
어깨가
예비군
자존심도
무엇보다
독립운동
유일하게
이나라는
아메바
부끄럽지도
##사이즈
몇십년
아무렇지
재활용도
깽판
알빠노
##툭튀
배고픈데
##자동차
에너지
모니터
mbti
con
tra
린
캥
톱
##ᆺ한
##ip
##end
##22
##💜💜
##는다는
##지르
##다보면
##하더만
##어린
##서비스
어질
##자살
##자꾸
##면피
거른다
##해본
저랑
가래
가부장
##한것도
지르
너그
시작이
안하니
안밟
자서
해리
없겠네
바디
아니긴
아니네요
내려야
진짜야
댁
대법
애기가
애쓴다
오디션
##치마
##신가
우짜
##바득
##바라지
차들이
좋겠냐
##전도
얍
##일수록
너무한다
덥
더워서
##오나
주구
주연
주작이
많을까
##노조
전환
##한테서
살겠다
소독
할망
공급
와야
와야지
비오는
##저나
유충
남자인
##긴해
셀리맥스
##안을
입구
입어야
상해
##없네요
성폭행
불질러
그렇게라도
##것지
##실수
화재
##선동
##당하지
요즘에는
나라지키
한국에서는
치러
스터디
모르는게
얼굴이면
방식이
방탄
##줄은
의심이
따르
인간이야
애들끼리
알았더니
이제라도
심어
학과
문제도
판정
실실
법규
계절
##관을
##하네ㅋㅋ
다니는게
열일
##등등
망했으면
몰살
##란드
걔들이
##팁
쓰레기다
쓰레기인
민나
민식
살았는데
킬
키만
##태가
##놈도
춥다고
놀자
아이는
후련
넘기
별것도
명확
##불러
세상이다
세상엔
##싶음
단백
절여
초록
호소
많은가
재밌는데
역겨우니까
죽어버렸으면
될거
천민
##점도
그러게요
당연하게
##품을
저러는지
질이
불쌍함
난리도
대통령님
정치가
정치하는
나가는데
크네
투명
##후군
팔뚝
다녀야지
것들이지
##언제
리더
프사
##득바득
웃기냐
흐르
제설을
해주니까
반성하는
캔
캡
잡아라
사랑은
잘생기면
##있어야
##백수
왜이러
더러운데
장애인들이
환자들이
##버리게
바뀌지
싶은거
빈곤
잼춘
슬픔
모자를
##넘들
##손손
이기자
불편하게
##버려야해
덜렁
사과하고
임신이
벌어다
##ate
가르치는
겨울철
차량에
데려와
too
##잖니
##잖은
명품을
펜스
느껴져
자연사
자연재해
잘생겼다고
뚜껑
수업을
하시네
쏘는
15만원
결과는
바꾸는
개판으로
가야겠다
불안해
도움을
12년
한대씩
##아닌가요
선물로
동성애자
중고딩
선배가
개빡침
여경이
여경은
성별이
치워라
착각하는
구분도
근본이
비하하는
우동사리가
레전드다
즐겁게
무거운
##논리
숙박업소
뻗
마술사
굿즈
쳐박혀
##joon
유흥업소
다물어라
어처구니가
한둘이
뿌린대로
귀머거리
프로젝트
김경욱
excit
2천원
듬
ㅎㄹ
##걍
##깽
##ᆻ기
##ᆻ겠어
##ᆸ션
##뜰
##쒸
##ig
##쭐
##ᆿㅋㅋㅋㅋㅋㅋㅋㅋㅋㅋㅋㅋㅋㅋㅋㅋ
##🎉🎉
##가스
##가에서
이냐
##들인가
아씨
어리고
어설
##나냐
##자글
거로
거르고
##읍니다
가지마
##한이
##인해
지면
지보다
조교
다하는
안부
##대단
자자
자적
자막
##주잖아
##주가리
##들일
그러지마
그러는거지
말든지
냅다
내리면
##였다고
##의무
못본
##상인들
인내
인중
기침
오라고
잘했네
잘하겠다
잘됐네
수구
수사를
수칙
##드신
개호
부상
부추
##전은
##전자
##테고
##같던데
니같이
고무
게스트
##할머니
##할수도
##내에
##내에서
##내면서
픽
피아노
##딤
##소름
군면제
##질듯
세우고
##액이
쓰리
알까
화나네
##님들이
##님한테
##했거든
받기
##이야기
돼도
신천지
##방으로
나라망신
##명의
치우는
동반
모르는거
선언
어디병원
어디있냐
인간으로
있는건가
에바
벌지
쟤를
자기를
경례
타입
원피스
발랑
안되죠
물어서
힘으로
##셔도
##못한
이번달
##감은
코쟁이
망친
병딱
중국의
운전은
놀면서
막막
##판으로
##복지
10살
##다니면
그만하자
##글라스
나와야지
있을거
귀를
##불편
##이라고는
국민들의
사회로
사회악
악랄
찍소리도
돌아오는
뽑지
청순
20억
약해서
징집
큰소리
카메
원래부터
떠드
##하기까지
통역
자살했다
어떤데
지역에서
광신도
##는것들
시켰는데
끼는
어쩌겠어
용디
충돌
좌표
나한테만
국가를
철이
철면피
곳인데
알바도
놈이야
히잡
찾아야
미개하고
벗으면
어떡함
##먹었는데
괜찮다
감사하게
##어가고
올라가는
디스
책임은
러브
지지자
##인거냐
침뱉
바뀌고
굴리고
##넘어
월급을
러시아도
인간이길
건강에
출신은
털이
##해줬으면
양아치가
기대된다
혐오스러워
짧아서
제한을
받는다고
기업은
1년6개월이
목소리도
아파트에
청소부
광고하는
언론에
언론은
30km는
묻는
반성문을
부르면
예의를
그것만
놀랍지도
자존감이
##맘대로
걸러야지
일베충
룸메
꼰대들
운영하는
신입생
축하한다
##몬스터
그쪽이
열받게
##정권이
국제결혼
대해서는
움직이는
의견을
성소수자
더듬어
요양병원
군바리들
영식님
재설작업
시스템이
시간대별로
머리카락이
쇼핑몰
벽돌
개극혐
춤추는
쪼잔하게
통구이
인조인간
개쌍도
중2병
몰상식한
돈까스
카타르
자글자글
안여돼
1초
9시
jo
꺄
꿔
넉
셰
##긍
##😭😭
##이용
##있다는
이때
이승
이십
##라는거지
##하겠
##하심
아베
##아지
나에게
저따위
저정도로
##거네
##기어
##윽시
하자는
가니
가는거지
##한녀
##인대
사주는
조진
여왕
##대출
있구만
바르고
진자
##래미
그러세요
말임
##무니
왜구
##구속
정자
못먹고
못했다
같다는
인력이
일요일
##부에
오직
오창
##치에
생매장
##신가요
잘가
잘했으면
남들은
수요
갬
갤러
차들
노노
부스터
##전으로
여자보다
야식
##같다고
니까짓
제때
##ᆷ이냐
버린다
##오는거
주잖아
먹더라
##내린
맞는지
맞바꾸
##봤다
살릴
소지
소고기
##디룩
##동훈
공기업
유머
유포
군이
중단
도지사
건들
건널
##때매
머지
걸지
첩
##했으면서
##이라더니
신은
신인
##방을
##청소
줄일
치울
치즈
##타이
##함에
스티
스카
모르잖아
모르나봐
##살인데
역차별
##쳤다
하고도
의한
위기
위주로
없는건가
일본놈이
일본인들이
따먹는
자기집
과장님
원시
##한다더니
지금이나
판타
##따박
##관광
급여
##등에
망함
망치고
##프게
몸팔
욕하면서
병사들
패죽이고
쓰레기지
##공주
허버
했더라
추해
춥다
애들이랑은
아이구
최후
찌르고
그거야
친구들은
##다니게
파면
잘못했어
편하고
##코클
쉬어
초범이
초콜
##거리면
음주로
돼지로
재밌더라
딸도
겹
계속해서
끝도
짓밟
##카드
##자들에게
옷에
포상
저러는거
온모
난리임
##맞는
자살해
자살한다
자살했으면
음주운전하는
나가야
순종
변호
깨시민
라인
늙고
늘릴
착해
아깝네
윤짜
윤창호
복권
직업군
무식하고
장난하나
흑인은
업적
##놨는데
##ould
자랑질
빡침
빡쳐서
젊고
##하자마자
의사들이
##있었는데
##담배
괜찮던데
암적인
미친놈
떡락
쌍으로
배달원
5030
월급은
너희가
##틀딱
놈들이야
짐승이
나올듯
잼민이들이
쇼를
준비해
민폐만
자식이라고
흘리
생활이
기레기가
있는거냐
가게에
사기꾼들
어른들
갈아버리고
똥꼬충들
안해본
만드는게
시위하는
배운게
춤도
말로는
##떨어지는
하는짓이
지난번
쌉소리
싸지른
근처에서
웃겨요
지껄여
대표적인
타령이야
미치겠어
##잔아요
가방끈
연예인이랑
이후에
두번째
데뷔한
엔딩
5000
빻았는데
기어나와서
발작하는
옆집에
쌓여
##밍경
고양이들
##쫌
stay
170
배신자
##셔야죠
엎어
불평불만
사무실
길고양
양키들
뻘짓
대단하시다
흉기차
뵈는게
배때지
눈빛이
com
힙찔이들
21세기
호박에
길가다가
학창시절에
오라버
히스테리
##음주운전
파트너
namjoon
따박따박
주구장창
민낯
3억
best
mis
now
ve
want
꽈
톡
❤❤❤
##냉
##ally
##갔네
##고가
이직
이기는
이정도로
##하듯이
앓
##았다
어장
하기도
가봤어
##인숙
사재
지팡
마이크
닿
안들면
여배우는
자진
자다가
자괴
보건
한표
없노
바가
진성
진상이
##무식
##스에
대줘
##국수
##상승
인지도
일하시는
기르
##수수
##신호
잘지
잘들
잘하는게
수건
개방
##정에서
##정하게
##간히
노리고
노총
##히게
것들아
##테일
야하게
##우지
##르셋
죽는거
죽었을
더운데
##ᆷ이라
##진이
많어
만질
##그제
##워요
전면
살잖아
소심
소재
할수가
드려
드네요
비만
유해
남자끼리
봐줘
##었을까
군부
건조
##본다고
머머리
무슨상관
상사가
성의
쓰레
불타
간이
##실까
##했던데
예고
예쁠
연관
나라인데
구멍
##속이
치는데
스튜
선택이
##이지ㅋㅋ
의혹
위대
따는
##중간
자기한테
##연대
들어주
##집도
##셨나요
실체
실현
빨라
없어지고
샌드
꼬투
현지
현석
속에서
완화
앞머리
추적
똥오줌
다른게
그렇다는
좋은나라
직무
3050
날짜
사고도
친구로
작전
몇일
파양
잘못이야
있을지
목적이
먹고도
말고도
태생이
호르몬
##꺼냐
설계
한번이라도
천만
약물
징글
김연
##귀여
특가
메코클
##하기전에
통행
온통
축복
척하고
보여요
백신도
탈영
하루도
팔려
운동은
지나도
조선인
뉴스는
리그
예쁘기만
붙잡
##허버
얘기지
##퀴즈
해주라
##슬쩍
생각이나
반성을
논리가
여성시대
##돈을
##놔야지
상관없어
했어야
갖춰
100퍼
감사드립니다
##답네
##라니깐
만든다
미친듯이
말도안되는
할머니도
책임져야
연애도
연애하는
연애하고
가정이
남자들만
쌍판
배달이나
시작해서
##받아라
접고
희망이
##은거냐
탓해
씝
해줘서
밤에는
사과는
양아치들이
##그러게
일어나지
일어나면
기대해
자유의
자유롭게
##뒤진
취급을
폭행을
민주당은
뉴질랜드라니
챙겨라
목소리만
식당은
데려가서
공감능력이
자연스러운
부끄러움
가격에
##새끼들이
비슷하게
마약을
범법
날씨도
능력있는
어릴때부터
등골빼
헬조선에서
도둑질
120
##가족이
급식충들
아침마다
케이파
상상을
고쳐야
딤디님의
압류
나름대로
약속을
원숭이들
의무를
뜻이야
참아야지
창피해서
창피하다
갚을
정의로운
프로그램은
판새들
겉멋
깨끗하게
플러스
플라스틱
섞여
붕신
정확하게
탈출은
티내지
끌어내
##차량에
구독자
##띵
she
엘베
개노답
##샛기가
쥐꼬리만한
그나저나
납치해서
처맞아야
굼베
녀석이
토착왜구
휠체어
wait
비아냥
어질어질
허버허버
2등
xx
케미
튜
##갈아
##꺽
##rea
##たま
##はく
##くはく
##そくはく
##あたま
##지들
##지긴
##갔다가
이자
##다님
##들까지
그와중에
아기가
아기를
##아요
어조
##뎅
##해버리고
저분
##기준
##기에는
하더만
가보
##한잔
사계절
지내는
지연이
마취
맑은
다야
시장에서
안남
안받고
여윽시
##대비
##사냥
있기는
자율
보던
##주더라
##주시면
한통
한계
바늘
바글
##랫
##맡
아니래
그러잖아
그러겠지
##보겠다고
말좀
말하니까
내라
정당한
정해져
댄스
인듯
무친
뭐긴
뭐하려고
사람이나
사람이지
오르고
잘하더라
되려나
##생긴
개쩌
차만
차원에서
좋으
노인이
부여
부부가
##전에도
##테크
여자든
미모
게이야
겠지
##오니까
돈까지
돈없어서
먹혀
먹기만
##및
그런것도
그런건데
그런건가
그런말을
##먹는다
전나
전략
##임신
맞죠
피싱
살겠냐
드러워
공직
왔나
##젓이
##문을
입냐
않겠어
않으니
않으니까
쓰던
쓰는지
받던
##선에서
배알
예절
##하다니까
연령
재료
신부
눈깔
나라꼴
엄연히
스벅
모르겠네요
##날씨
운지
감상
영계
싸튀
의식이
일본이랑
따서
있는가
싫다는
##럽네
쟤한테
자기소개
반에
반바지
뒤쳐
##끼들
쳐넣
경악
서는
들었다
안되나요
문젠데
올려야
외면
망가지
걔한테
패미
잡히
현질
민중
민감
속물
추석에
넘나
##인가보다
회수
박제
해야죠
친구끼리
##하는거다
##절로
##콤
단추
##징글
죗값
##꺼라
페미년들
재밌네
재밌음
역겨운데
죽어봐야
##초코
필요없는
볼일
냄새날
맛은
어린애들
##거지로
줬어
줬는데
특검
옷만
살인충동
여자들의
저렇
쪽이
##맞게
정치인은
영상에서
나가도
빨아서
인성에
순양
보여주면
백신맞고
누구도
표시
운동권
##척하는
읍
생긴다
늘리고
##색으로
복장
현실에선
대체로
직업윤
높다
꺼라
있나보네
의사나
신경안
칼부림
##답지
##뜨고
디질
환자에게
드라마를
생기긴
책임감이
각성
뿐임
지지자들
지능순
조용한
멀어서
침몰
빈대
빈티
##넘은
지키면
사건도
팔아먹고
노력해서
쟤네들
희한
밟아서
짐승도
답답하네
잼민아
땅에서
걸려도
지켜보
권력이
집안에
##ort
가해자도
떼고
분명함
방법으로
탄산
삶아
폭행한
어이없음
겨울이
배워라
삐딱
성격은
악마의
광고를
똥꼬에
개판이네
팩트는
도망갈
재밌겠다
들이대
예의도
모양이냐
유튜버는
나쁘다
환경이
유행하는
느낌이야
용서를
##ᆻ나봐요
폭력적인
쿵쾅쿵쾅
타령하는
신입이
괴롭히는
콩가루
창피한
재산을
개빡쳐
쑤시고
따뜻하게
값이
밟아도
얻은
모르겠던데
샛기들은
제조사에서
턱주가리
교통사고로
설거지론
무엇이
##ard
불가능한
안달난
##으시네요
뱉어
욕심만
##하하하하
바래요
교도소에서
섭섭
의료계에
족속들
한림대학교
사례가
안마방
간단한
기저질환
유투버
나중에는
심사위원
무책임한
춘천
꿰매
안될까요
개떡같이
대굴통
21세기에
##므로
오일팔
양육비
비둘기
본보기로
넷플릭
발뺌
카푸어
매일매일
1번
2억
45
c1발
son
꽝
껴서
##ᆻ군요
##ᆻ단다
##쿡
##씸
##king
##6차선
##이었
##이겠네
##갓
##고를
이간
이놈
##도덕
##하려나
##어이
##어떠
그놈이
아구
아롱이
##았네
어필
##로가
저긴
저격
저세상
가본
사격
사주면
사시는
모은
지혼자
마저
안지
안맞아
##사장
자들
잤어
해쳐먹
없다니
바이
진즉
##램
##겠으니까
##보내고
내주
##여러
일등
기지
기뻐
ㅋㅋㅋ그
생물
잘함
남아서
##바글
수꼴
수컷
노이해
부릴
##되는거야
##장치
##일이나
##르다
고래
너무해
##세를
먹지마
##노ㅋㅋ
만도
##극이
##임을
맞벌이
##봐봐
##봤지
싶니
할수도
할게요
생각안
생각하면서
##조장
##렌스
드르
공인
공익이
와씨
왔다고
비계
봤습니다
##육이나
##때만
##애들도
저런것도
##없애
##없습니다
당해보
않더라
성숙
쓰다
쓰잘
화이자
배설
##새기들
##걸려서
돼지도
구입
어떠한
한국남자
줄래
##준다는
##명도
스물
##핏
의자
의도가
일본한테
벌기
##형도
##끼다
하지를
들어줄
오늘만
안되겠네
##돼지가
심하고
교사가
##급한
실종
계셔
없어야
백지
백수가
몸캠
##이공
병균
##반응
말이되나
했데
짜릿
똥도
다른건
놀다
아이의
아이러니
30만원
막혀서
박으면
해야하나
몇푼
파키스
급발진이네
##이라곤
확전
빼애
단톡
악성
무서운데
##월에
학교폭력
인정해
청부
답글
곁
믿거
볼게
볼수록
짓이다
식충이
보내버렸다
판사들은
냄새나서
메시
군인분들
통해서
싶었어
쪽은
산채로
정치병
음주운전한
골때
빨아주고
인성검사
게임에서
##찍어
착용
예쁘네
현실성
##빵빵
철학
반성은
장난으로
여성을
##줘야함
##범은
사귀면
말았으면
말았어야지
고생하시는
조심하세요
클래
가정교육이
팬이
궁금한게
증말
시작하는
침해
침공
싶은가
오랫
벌레들이
개돼지처럼
너희들은
존재가
##은거임
태어나고
##만큼도
뚱뚱하면
밑으로
해결할
여러모로
임신하면
##먹었음
집안에서
씻어서
덕질
균
사라진
십자가
스트레스가
했으면서
부족해
협의
되었다
생활비
데려와서
##액션
성공할
강력히
단속을
쏘고
달려들
바꾸자
ㅅㄲ들은
가득찬
들어옴
시민들
풍산
뒤지길
압박
수사해서
표현이
룸빵
룸나무
혈액
피싸개들은
출산율이
깝치는
##궁금
중고거래
창피해
중요한건
힘드냐
##엄마가
뼛
##부모가
발언을
졸업하고
힘내라
부작용으로
모르겠더라
##팬티
근본적인
몰려와서
활동하는
대깨문들
집중이
덤탱이
모른척
어떨지
독재자
자업자득이
잔인하게
말세야
푼돈
스폰서
영향을
주름이
거북이
봐줄만
폴폴
충격이다
압수수
국토부
개돼지가
서서히
독서실
입다물고
샛기가
대대손손
노벨상
차베스
miss
바글바글
파키스탄
2찍이
4대
80년대
bl
kw
k방역
ver
뀌
락
뾰
뺑이
썰어
펄
##ᆨᄁ
##햐
##촬영
##컴
##ᆷ푸
##ive
##쫄
##🙏🙏
이세
이끌
그어
##닐
##자면
나약한
##해버려
##거에
##거랑
##거루
하위
하거든
가는거야
가봐라
가지면
##한심
##인원
조성
넙
다했어
여인숙
##대는데
##대접
보느라
한미
한동훈
바나나
진주
진단
##마시
말인가
말인지
말버릇이
내네
못내
못봤어
인테
인줄
일들이
일입니다
뭐했냐
애초
기형
기숙
기쁨
##치러
잘된
##니까요
남잔데
개개
개보다
부인이
##되잖아
##전화
여자네
여자처럼
니뽄
고수
죽든
버젓이
##진창
주둔
돈많이
먹으니
##금은
##노무
##할거다
##그대로
전봇
전재산
##임ㅋㅋㅋ
##와의
싶지도
할까요
드글
공원
남자들을
중이
중임
도가
##개혁
세균
##안나
##안타
저런인간
무슨말
##체인
##과학
쓰더라
쓰지도
국격
국립
처분
간부
##님을
받는게
배로
##획
됐을
신의
신규
신박한
근육이
맺
정신연
줄이는
동창
##위해서
역사를
싸우면
애들아
과하게
좋아하는거
좋아했는데
좋아하잖아
##학생이
##나라는
발음이
##돼요
##됐으면
지금처럼
아닌척
법인
돌파
꼴이지
망하면
까딱
##ㅋㅋㅋㅋㅋㅋㅋㅋㅋㅋㅋㅋㅋ
##반신
인생이다
키는
짜는
똥인지
아이들에게
그렇죠
최초
막말로
찌끄
박혀서
그거는
작게
작은데
델
두분
나왔냐
나이만
받았다고
빼서
빼먹고
단발
태양
태우고
##거리는데
##갈기
음주사고
재밌냐
재미있는
재미없어
죽였으면
죽여버린다
답장
한다던데
한다는게
##추방
볼때
냄새는
찾으면
처벌하고
듣는데
된게
토종
가족들에게
##했다면서
만들려고
##투기
담궈
##시켜야함
자살하면
기사도
나갔다
척을
극성
대학에
있다는데
해서는
가슴만
##멘
##들한테도
뜯고
북한이랑
풀풀
늘어난
연예인을
윤대통령
리액션
뻔했어
독특
어디서든
붙을
안봄
다음날
##찢
해주냐
속도는
높이
찐따는
년을
##누구
썩어서
보이니까
처음에는
젊을
##견이
의사들은
미쳤다고
뛰고
때려치고
올라오는
있었다고
책임도
클릭
부모님께
기본도
50으로
하더라도
쥐도
되냐고
접어
와꾸로
시험을
건강히
건강하세요
sns에서
밤낮
##클럽
노예가
노예처럼
지켜라
죄송한데
지원을
힘들어도
씻빨
도와줘
어린이들이
강아지를
쪽팔리지도
시댁
전화해서
족쳐
좌파들이
느껴진다
맡고
ㄷㄷㄷㄷ
##핑이
비싼데
흉내
만드는데
마지막으로
컨디션
개인정보
뜯어내
풉
해봤어
대신에
이것들아
##수있게
나쁘면
##층은
대선후보
지옥으로
웃겨서
판단을
쪽바리들은
보상금
##했나보네
혈압
투표권
당당한
젤렌스
조센징들은
겉으로는
야구선수
착각하고
엠비
홍어들
입으로만
500원
노출증
일으킨
개패고
여론이
나타나
켜고
꾸미는
머갈통
봉사활동
게시물
배고파서
안만나
버텨라
뒷담화
최악이다
지긋지긋하다
##묻은
##주인공
mz세대
어처구니
틱톡
상당히
충청도
얄미
소아성애
대낮에
##명복을빕니다
젠틀몬스터
오함마로
물타기
헌터퐝
어메이징
excited
38
3대
3개월
600
get
ins
pe
par
쟈
햐
##ᆺ데
##쩔
##100
##ㅅㅂ
##👍🏻
##지겠다
##지옥
##서나
그보다
그것들
그따구
아뇨
엊
얻고
저사람은
##으시면
##시피
##러기
갔냐
가던가
##인지는
사소한
모래
지날
지내고
조각
시다
시기에
안미
안심
안느
안믿
##만족
##만봐도
자해
봅시다
한적
한푼
없나요
진영
말해주
내숭
##무가
##였습니다
##구여
정규직
대민
대통
못했는데
인가요
인물이
일해야
무방
무주택
뭐하는지
애견
기자들이
생체
되었으면
우째
개고
개구
##되야
##되요
니꺼
고향이
게이가
##진상
주라
먹잖아
##미달
##할라고
##먹더니
##먹어야
그랬나
##적일
##적인데
피해서
살수
우리같은
##조합
##조센
비추
남자냐
##졌다고
##졌음
도를
도리도
##단고
세일
세차
건달
입건
입으니까
상판
난폭
##없는게
당했는데
쓰려고
처넣
##것들아
##것같다
화끈
##이라지만
배치
배째
##하다보면
연인
재해
됐는지
신중
구하는
한국인은
정신감정
거지ㅋㅋ
줄어서
##타이거
동해
선수도
선글라스
일본과
##길을
반토막
알았나
알아들을
뒤에서는
##학번
타는데
발톱
안되더라
머리만
심하더라
강릉
듯ㅋㅋㅋ
##격리
간호사로서
##못차
놈들아
법이다
법원에서
네가지
다니던
코를
코딱
백인이
##티스트
술쳐
앞가
앞은
빠지고
그렇더라
최전
최악이
엄마들
찌라
찌르
적발
날에
날리면
날강도
박스
박정
이상함
등판
나왔을
나왔더라
##휴가
만났어
##씹
##씨는
받아먹고
않았음
갈구
##불에
존버
존내
뺏기
단정
##싸고
호의
언제든
설사
돌아버린
없다면
재밋
식용
거기를
보내세요
원래는
군인요금
살인은
씨발
##했다면
한심해서
마음의
검거
방송사
##맞추
해도해도
만들어진
글이
##시간이
하루가
금리
어쩌자는
외국어
운동해서
지났는데
화장하는
사실이잖아
싹바가지
점등
독학
현실이다
##그래서
옆자리
##쪽팔
나한테는
##봐야겠다
직업의식
가능하다
여성징병
높음
총맞아
캐디
사랑해요
##out
아이돌을
본인만
젊었을
말아먹은
잘생김
했어도
어떡해요
귀엽게
100억
남편을
때려야지
브레이크가
올라가서
디룩
있었지
육변
뿐입니다
성형수술
몸매에
느끼게
쌍방
배달음식
의료인이
범죄자들이
창조
##얼마나
양심은
일반적인
슬리
징징거려
시험기간
자격을
덜덜
따로없네
그때도
걸렸네
권리를
가난하면
공개하고
끊임
동물을
일부로
언니는
어린이를
아저씨는
나대냐
외모도
취업이
차별이
페달
옥상에서
딸배가
##하겠다는데
갈아서
##따위가
쳐다보고
집단이
갔다온
바닥이
치킨집
줄어드는
영어를
웜
##보이려고
발전을
돈벌이로
##팔아서
##풍기
지도자가
유럽은
놓는
##김치
잣같은
용서가
닭다리
투표를
안쓰럽다
땡겨
정의를
##쩌고
빠순이들이
제목이
훈련소
확진자가
찢어서
플레
못배워서
게으름
게으르고
쉰내나는
고마워요
안좋아서
머리통에
정당화
레전드네
삭감
자국민을
소용이
쿨찐
빤스런
특별한
특별히
뭣하러
아동학대
##많아서
one
이중성
얼어죽을
무료로
바람피는
혜택을
eng
ㅂ신아
노력이라도
두개골
경비원
멕시코로
줄어드는데
닫아라
밍키
언냐들
뮤지컬
##민주주의
왜냐면
빡머갈
장식이냐
##뵈기
밋틴
입마개
오나홀
바깥
일종의
샐러드
꼬락서니
캥거루
단백질
압수수색
디룩디룩
1일
3분
4단계
know
sm
춰
##쟤
##괘
##ᆰ아
##컥
##푹
##펄
##ᅫᆨ
##rou
##ㅠㅜ
##라네
##라는걸
##라이트
##도아니고
##들보다
##들처럼
그닥
그당시
##아들이
거릴
거덜
##햇
##기게
하대
하셈
##한태
##인구
사돈
모질
몹쓸
지름
지릴
조종
안당
안하니까
안해요
여튼
##대요
자라니
한자
해놓
아니던데
##런지
##보이냐
말하는거지
왜자꾸
##스토
못돼
못받고
못봄
못받은
##상권
인건
무법
뭐하게
애인이
기왕
기싸움
오락
##침이
생수
잘사
잘보고
잘하세요
되는거임
우루
남성이
수리
개로
개웃
개죽음
차림
부자가
부장이
##되는거지
것과
##장이나
밎
미만
야외
닉
##우탄
제대
고파
죽냐
죽으라고
버스타
주신
먹는거야
먹여서
많노
##미사일
##워야
##먹는게
##먹어도
##내용
그랬
피떡
##와트
##왔냐
##딜
##좋고
드세요
공영
유혹
유퀴즈
남자나
##운영
##긴함
들었음
중인
##년생
저런것들이
상속
상향
##없으니까
당함
당한거
당분간
불필요
문을
문경은
간접
알겠습니다
##실히
받는거
재수가
됐잖아
신랑
신나서
장담
##방구
나라꼴이
구성
한국법
정신못차
##준대
##명이나
치는거
치열
스크
역으로
선빵
##줄알고
딱이
인간으로서
결함
벌떡
과시
참지
참사
타임
친다
물도
문제네
간호사들도
판치는
##못함
얼마를
나오겠다
본판이
계급
꼴찌
다니세요
분량
소리하는
까부
##ㅋㅋㅋㅋㅋㅋㅋㅋㅋㅋㅋㅋㅋㅋ
##공감
##공론
달러
추위
똥줄
운전하고
놀리지
후리고
좋은가
회장이
날리
이상으로
##다니지
데이터
나왔지
파산
##라는건
만나러
##돌려
목격
편도
편이야
편드는
편돌이
출세
##싶은
시간낭비
길로
멍청하다
멍청하니까
빼앗
##사람들도
##보고싶다
괜한
돼지라서
찍소리
재밌지
재미있게
청구
답은
떨어트
되는건가
필요없어
짓고
보내자
냄새나고
자식들도
듣는거야
토끼
##토피
형은
메이크업
가족분들
사람들이야
합당한
불쌍하긴
담에
나갔어
빨아주니까
크다고
##짓은
혼자만
투덜
탈조선
깨달아
다녔으면
##폭력이
짜증이
사진도
사진만
용기가
##꼼
현실에서는
##쪽에서
##값은
흐르는
직업도
겁난다
높으신
베이
흑인들이
##놔도
상관없는데
이야기가
영화에
올라간
조심해서
딜러
디엠
맘카페
드라마에서
책임져
##덩어
가정폭력
기본이고
로비
뒷바라지
들어가고
조선족들이
양심에
능력없는
시험도
세계적인
다르다고
시끄러
모두에게
##좋겠다
해결이
그지같이
걸렸어
권리가
여러번
동물의
##렁니
지잡대는
못하도록
미래에
했다는데
##스럽네요
##웅신
뉴질랜드에서도
바보가
식당에
피곤한
시간에만
때문임
초등학생이
신기한
폰을
뻔뻔하다
쳐다봐
뜯어고
##었나보네
고양이를
의미로
흙수저가
##여자랑
워킹
주인님
##뭐냐
자존심이
고민이야
비교하면
지구상에서
선동질
죽이려고
생리대
감정을
루머
후보가
동생은
##쓸모
새끼들이
모델이
저희는
쉰내가
##샛기야
맘충들은
규제를
따뜻해지는
겉만
색희는
닮았다
플레이
할매가
퇴근하고
구역질이
사람죽여도
짓거리를
기어나오는
올해는
가짜뉴스
시끄럽고
완벽하게
차리려나
##밍아웃
##버릴까보다
한반도에
비위도
있으려나
헤어지자고
뻐드
친절하게
미용사
첨부터
쩔어서
소름끼친다
##아프다
천벌을
삽질
보태준
한복판에서
##이유가
조장하는
머릿속에
석열이
밍경
사명감
##옆에
트럭에
정신상태가
고맙습니다
애정결
대수라고
텐션
로맨스
믹서기에
드라이브
다나카
포르투갈
again
성상품화
1년6월
##단고음
2차선
don
ever
n번
or
ppl
sk
벅
##ᆺ밤
##븐
##ᆫ지
##랭
##뜬
##팽
##od
##ᇀ은
##있다가
이주
이라도
이에는
##라지만
##하로
그제
##리안
어어
##야겠어
나던데
거리고
저항
##기의
##시부터
가드
가당
가꾸
가지는
갔지
가죽
##을려고
##인에
##인증
사모
사병
마자
시나리
안합니다
안잡
##만들고
##대니까
##사하고
있길래
보징어
##주게
해보면
해놓은
진하게
##짜고
말하기
정해
대륙
인맥
일관
무상
애야
애미
애새끼들
오프
오지고
생식
##수리
잘가라
##생김
##버둥
숨이
개객
개솔
개별로
좋대
노잼이
노브라
부리지
것부터가
미소
야채
##우선
제정
죽지도
##세에
먹이는
많지만
##노인
만다
##할수가
##할껄
##내야지
전원
전엔
그랬어요
살인데
싶던데
##소는
우리반
생각엔
유모
유소년
##발라
들리
들통
들락
##질이네
도무지
##문하고
##터는
저런애들이
입혀
상한
난리가
쓰래기
간수
화상
##했구만
##키가
##키우
##있네요
##회에
근친
장래
나라지
매가
거지냐
##위치
영어도
##중국
인간한테
결여
과한
과하다
##형님
##겠지요
##연한
서버
힘없는
교과
문제있는
법원이
돌봐
돌리고
##관념
외치
열불
##양반
망하지
##프가
백만
까면
응징
뭘해도
##공화국
말이면
달게
추한
중국몽
##석은
날리는
작성
잘못하면
명심
나이스
갈린
한남한테
국민들도
멍청이들
확신
빼먹을
##근혜
초중
생겼지
생겼다고
군대가서
호그
사회는
혼밥
천하
김지
##된게
판사의
##약약
찾기
병원인지
힘들긴
##죽은
듣네
당연한거지
써놓고
형성
종전
질식
사람들이나
온도
이유없이
골이
##악마
##포고
투자를
##시간은
터짐
##즙
어쩌니
어쩌자
외국은
으깨
##레이커
연예인병
싹을
예쁘던데
하는걸
속도로
장난치는
찐따처럼
##돈이
##누가
어렵다고
베스트
##고싶어서
##놨냐
히히
사귀지
미개해
미개하게
중요하다고
왕자
멋있지
##많은데
키우지
##규제
못생겼다고
##꼴통
성형하고
가정에
로마
궁금함
침범
침대에
바뀐다
빈다
능력을
벌레만도
비싸다
##해보인다
교수님이
sns로
많다던데
땅딸
고맙다고
일어나길
지방이
씻는
경제적
읽으면
운전자도
운전자만
너한테는
탄생
억울해서
스트레스야
하기엔
다행히
시대를
바보로
평소엔
이딴거
여기서도
좌파들
아파트에서
30키로가
어머니도
가격도
상대방이
초딩이
멀쩡한데
견제
손님한테
범인이
노답임
##효율
출근길
티비에서
##보이더라
황당
인도는
치마가
타이어가
부터가
해보려고
지껄이
지껄이지
표현의
잘나가는
따먹기
깝죽
남녀가
긴급
판새가
증거를
대박이지
튀어나오는
부럽다고
머저리들
색희들은
25살
마렵
양구에서
올림피
편의점에서
부정적인
반응이
##턴트
11월
어쩔수없이
막말하는
사람으로서
지역상인
숙박비
즉시
늘어나는
버릴까
타이틀
엉망진창
ai로
비정상적인
여우짓
인류애
국개의원들
거세를
게시판
멀리서
이지랄
어르신들
입맛에
show
여돌은
미련한
빠르겠다
부엌
먹고살기
숨쉬는
멱살
이익을
##차이즈
허접한
허구한날
make
디지털
횡령
주기적으로
마마보이
립스틱
훼손
안씻
조리돌림
take
비트코인
보조제동등
시원찮을
불법주정차
애꿎은
오랑우탄
징글징글
슬리퍼
2d
her
nice
tri
꾀
뿔
🫶🏻
##ᆫ이
##쵸
##ble
##뻥
##짠
##ca
##ㅑㅑ
##이었음
##지방
##가해
이긴
이럼
이쁨
##랍
##도둑
##어는
##섞
그돈으로
##리라
##야된다
나태
거주
거리를
하구만
##시면서
가겠다
가리는
가산
지대로
좃
다뤄
시시
시커
시대는
##요즘
안봤는데
##만해서
##만하지
##만해도
여지
여중
있데
자수
자긴
보g
보더라
##주소
##주머니
한지
한때
한물
한순간
없으
없이는
바치는
##마이
아니었
말함
왜하냐
정화
##스도
대국
대가를
못따라
##상인
인상이
인사를
##에서부터
일임
일년
무장
무식이
무인도
사람임
기쁘
기자는
기둥
기르는
기자들은
오지마
옵션
##치잖아
##치우고
##수니
우회
우덜
남주
수습
개부
개잘
차끌고
좋겠
여자인데
요란
##일어나
##라고요
고만
고삐
##세워
##모두
##진게
주니
주요
##믿고
##말이지
전락
##적이라고
맞출
살이나
##소문
##소연
할복
우리에게
듭니다
남자든
##면서도
##발언
들으면서
들여서
##호식
##질텐데
중범죄
머야
머냐
입는거
상하
상남자
##체능
쓰니
쓰는거야
불어
##실로
##했죠
배아파
예체능
신용
신도시
눈코
장땡
나라네
나라임
구토
어떻고
줄이야
얼굴보고
방생
하고있네
싸움이
싸잡아
위아래
땀이
손해보
반영
##형에
##겠지ㅋㅋ
원장
발의
교훈
굥이
문제고
##해야하는거
놈들을
아무말도
외부
사람입니다
다니던데
다니는거야
새겨
##란히
##받으면서
욕먹고
속시원
인생들
아니라면
허허
말입니다
했겠냐
중국도
평상
후유
별명이
박은
결혼하기
이상하네
이상형이
두뇌
번은
##편이
멍청이들이
존엄
쉽다
커리어
인정한
뽑기
미국과
미국이나
죽여버려
##쓰는거
믿음이
징수
식단
거기다가
판사한테
냄새나게
빨리빨리
종신
##독재
군인에게
온거
이랬다
##해주니까
##맞지
만들어도
군인들과
텐트
변하지
있다며
요새도
표출
표창
별로던데
##목으로
##아니라고
그럴리가
##찍히
뉴스로
준내
렌즈
배우면
예쁘니까
##커녕
다음은
다음주
생각이야
가능함
저기에
알바를
장난질
여성의
어렵고
캐리
##철수
앉는
된다면
아이돌들은
##되는건
미안하다고
칼을
뛰쳐
어떡하니
괜찮고
고생을
감사해야지
맘충이
장사치
헬메
##나오고
배달비
어쩔건데
젊은이들
숨어서
전쟁은
너희들이
김치들
스쿨존이
여자친구한테
쟤네들은
##해보임
ㅈㄴ게
선수들은
남자친구한테
밤길
시끄럽다
##뿐이야
잼민이들은
땅이
땅을
##정부의
졸부
빵셔틀
##째로
기대할게요
혐오스러운
죄송하다
##감이다
##버릴거야
거리에
##할때도
너한텐
면상은
알려주세요
억울해
억울하다
한테는
기레기들은
죽는다고
아나보네
꼬라지를
하시지
하시네요
초딩도
이혼한
저능아야
팩트임
견뎌
ㅋㅋㅋㅋㅋㅋㅋㅋㅋㅋㅋㅋㅋㅋㅋㅋ
싸이코패스네
##eel
유튜버가
죨라
워리어
지나가다가
##싫으면
지도자
핑계고
화가난다
당해봐라
내용은
보상을
##다녀라
안들어와
안쓰는
밝혀야
2년도
동성애는
센징
와이프는
잊을
선생님한테
계집들
상식도
짝짝
시절이
웃긴데
제설작업이
전체적으로
앵커
살다살다
왕복6차선
그룹은
##바닥이
뜯어서
분노가
##행위를
끓는
취미가
많을텐데
시속30
웃음이
어디에나
싸웠어
실망이다
대접을
외노자들
탁상공론
ㅠㅠㅠㅠ
며느리가
재능이
진실을
이런데도
유리한
롤모델
농구하면서
폭리취
대정부투쟁
못참지
배고프다
감정이입
야만인
법정에서
술취한
자업자득이지
객관적으로
비틀어
방향으로
오랜만이다
빙판길
퐝님
마녀사냥
한남유충
랜덤
순식간에
쿰척ᄏ
민트초코
교통법규
선전포고
건보료
난도질
##딤디
노총각
꼬투리
##そくはくそくはく
kwang
##타이거즈
3주
7만원
care
fin
kf
om
こは
##ᆻ잔아
##ᅴᆼ
##um
##sg
##ful
##쪄
##ᆽ는
##az
##😍😍
##🇰🇷
##이드
##지션
##가니
##가니까
##다나
그립
아등
##아직
##아이가
났나
##거죠
##기라
하락
하겠니
##시발
가위
가겠네
가지도
가방에
가랭이
##네ㅋㅋㅋ
사항
지불
마귀
시바
안쳐
##대잖아
자매
보겠다
보관
보더니
한명이
바짝
##겠으면
##보들
##보느라
말안
말해줘
말장난
##제공
##뭇
정복
##스레
못나가
못나오게
일일이
일가족
뭐ㅋㅋ
애써
애색희
사람과
사람이라면
오이
오를
오더라
##칫
생명이
잘하자
잘되는
잘될
되려
되겠네요
##바위
##바등
수비
수행
수순
##드나
##드는데
개쳐
개털
##간다는
찿
좋으신
ㅋㅋ야
노리
##되었다
미틴
##건강
약이
제주
고시
##ᆷ이라도
##진당
전국에
##ᆻ는데요
맞자
##민수
살겠다고
소세
싶긴
##조각
하는가
##렛
##렘
공갈
공론
비로
비례
유동
남자애들은
##녀를
##유지
돋아
##단지
세력
세우는
##애는
저런놈
무슨소리야
성대
성인지
성평등
국경
##트는
##트키
알긴
##선에
##선택
##키나
예보
연기는
##있니
재정신
장악
한국사람
거지는
줄넘
##물질
##줄께
위하는
일본놈들이
싫을
자기들만
반만
뒤지지
참에
참담
##학적
서포
서핑
##나라에서
발버둥
##됐다고
물소
심장이
교차로
강원
##집안
##해야한다고
아무생각
실수가
법이냐
관여
꼴뵈기
##감사
망하는게
##받길
##받으려고
분양
까다
##티쉬
잡힌
속여
속이는
했구나
빠따
우리나라만
놀이공
후다
##판도
적혀
박박
결혼이
##느라고
##련다
##련이네
파인
파스타
번다고
번개
잘못도
잘못이냐
잘못이라고
명분이
필러
환승
갈길
갈거야
##불능
세상에는
시간문제
길냥
##입장
단물
많아진
초범
엄청나
군대나
호신
호강
폭등
커야
##월드
될것
인정하지
인정해라
##강력
짓이지
식구
보내야지
보내버려야
냄새난다
그러게나
원래도
듣냐
듣던
떠벌
가족에게
통하는
##하십
합성
몰랐음
##맞음
대통령으로
##했어도
##시켰으면
##순결
테니스
1년에
##는다며
팔에
둘은
##색을
헐렁
복구
복싱
정신병이야
독해
독한
사기친
옆으로
하는걸까
생각해요
붙여서
안보이는
가능해
가능할
장난이
높여
어려움
폐업
억까
억장
도로로
꺼져
행동으로
##쉽
이야기는
중요하냐
홍수
홍천
##채널
고생하셔
감사히
다리도
무시하지
클리
로망
프로필
바라요
증오
시작한
군부대에
군부대를
창의
조선족들은
##막아
쥐똥
일반인들
굴고
축구는
팔아먹은
불편해서
여자친구를
피해자를
답답하고
힘든건
잼민이가
이름만
돌아가면
여러가지
바꿔주세요
준비를
빨갱이가
씻지도
즐기고
그리워
내일은
강아지는
##캔
안나는데
공격을
강원도가
우크라가
협력
협찬
삐쩍
삐뚤
목소리를
심각한데
##명이서
저딴게
놔야
팀장님
##힘들
어머니는
잘생겼지
상대를
느낌은
쳐다보면
팩트를
엉덩이를
이것만
이것들은
모양이야
##듣는
납부
도태남
시민단체
5년동안
거울이나
교회에서
지겹지도
치마를
박탈해야
혈안이
군인이라고
땡큐
샷
샴푸
남녀차별
괴롭히고
얘넨
잊고
정의가
드러누
박살나
움지
축하드립니다
쏴서
대로변
쫄깃
무기징역이
갓생
달아서
대리만족
오타쿠들
부작용이
합법적으로
은근슬쩍
찢고
사라져라
신상공개하고
빨대꽂
섬망
섹시한
브이로그도
변호사가
성욕을
계획이
씌우더니
4년제
단순한
사라지면
못가게
깜빵에
발광을
여태까지
절반이
##ᆿㅋㅋㅋㅋㅋㅋㅋㅋㅋ
깊이
멘탈이
속상해
없어졌으면
어리버리
소름돋아
한두번이
대다수가
두려워
뵈는
특이한
살림이나
불쾌해
날뛰는
불구하고
##마저도
떄문에
운전미숙으로
어딘지
극단적인
보빨러
##ㅏㅏㅏㅏ
딜도
붕어빵
선제타격
기분나쁘
##꼰대
지우개
수시로
김대리
쫒아
다니다가
여고딩
도우미
깨어있는
난독증
공황장애
very
코딱지만
박정희
애정결핍
こはん
아등바등
29
55
back
cute
feel
lee
❤❤
##둠
##ᆸ니
##넉
##층민
##ss
##쯔
##pm
##ㅌㅋ
##이던
##지노
##지겠네
이도
이만
이룬
##닫고
##섬
긋
그의
그외
아유
아세요
##아무
##자니
##데이
거름
저꼴
저자식
##시스테
가잖아
가든
가겠어
가버려
가리지
삽니다
사오
사연
사주고
모시고
지르고
너까지
시술
시장을
시킴
안무
안보면
##까라
여대는
##사이에
있단
자부
자처
보람
##줍
##주실
##주시는
해와
해충
없는걸
바르
##래머
##마스크
##보로
##보구나
##보며
##여자는
정기
정시
##스프레
대폭
못벌
못보고
인강
일용
애비
사람까지
생태
되는거냐
남배우
개시
개심
부어서
##는거에
여자니까
##하곤
니보단
요가
고지
고프
더하면
##모는
버리기
##먹자
그래봐야
##잖아ㅋㅋㅋ
피로
살도
##소릴
할꺼면
우리보다
생각했어
비듬
비상식
중화
도주
도심
세대가
##본적
걸스
##안고
##안한
성적으로
쓰기
##직에
국평
알겠니
##실은
화나게
받쳐
받으셔
##린게
##샘
연속
연탄
##회가
재입대
신났네
##같은건
근로
구구
구급
구려서
매직
엄하게
또또
##명씩
치를
##타운
동족
동감
##던데ㅋㅋ
##피고
##위기
선호
##배상
하고싶다
영부인
위장
일본여행
##중한
인간성
인간들을
있는건데
애들보다
##이다니
반으로
경각
경향이
안되게
##산에
##산물
물갈이
심보가
##크림
강약약
판례
##못할
돌은
관둬
올리냐
양이
양녀
꼴갑
맞았나
열고
##파괴
코메
망언
까도
##망이로
현숙
##군부대
앞이
말이에요
빠지게
빠수니
운전해서
운전하다가
놀기만
아이들도
찌는
그거나
해야될
##다니는데
등급
두시간
나왔대
틀따
몇억
파묻
행실
함ㅋㅋ
있을걸
귀싸
귀신이
목화
받았나
않았을까
편돌
멍청한거
존맛
음주는
음주에
##넘이
페미를
많은듯
티내고
뽑냐
사는구나
20km
겨털
약도
믿는다
필요없다
짓는
식겁
판사님들
병원가
힘들더라
된거야
이러네
종자
포도
통신
##올린
쪽바
코로나에
정치적으로
대단하고
##포니
글고
누구든
탈원
알고도
금요일
틀딱아
운동만
##아닐까
으으
풀면
기분도
생각해봐라
안보임
다음에는
철없는
속도만
무식해
베풀
##않은
##범들
아빠를
##고싶은데
히틀
상관없지
벗는
##책을
뛰면
중요성
갖는
100만
남편이랑
엉망이
디저
떡치는
무시하냐
연애할
쌍둥이
들어가야
당신같은
##막을
신곡
쥐약
선생들이
소개해
존재야
퍼져
깜빡이
밝히고
건강하고
비싸지
짐승은
많다니까
확실해
손흥민을
그지들이
꿀꺽
지켜주는
가난뱅이
머가리를
지방은
씻팔
검사를
읽을
자유민주주의
저랬으면
##하지마세요
시대의
강원도에서
농담이
외모로
님들
겨울에는
##ㅜㅜㅜ
헛소리하는
신기함
가게는
빠졌어
쏘면
팩트로
돌려보내
흙수저들은
모양이니
손가락으로
##하셔야
시골에서
진상들
대깨들
환경에서
석탄
황색
프로그램이
고쳐라
개그튼
브레이크등은
쪽바리들이
해보세요
지껄이고
어쩐다
안쓰럽
2년동안
대표가
뜻으로
캣맘이
마시러
배려가
강제징
##국가에서
여경들
##수준이
이전을
투쟁을
갓본
어디갔냐
귀찮다
마려움
헬스장에서
근본없는
##ㅠㅠㅠㅠㅠㅠㅠㅠ
된장인지
턱이
못차리고
작가님
##년도에
유난히
##였다면
확률로
정당방위
이재명이
냉동
##버리는게
노가다나
무엇을
개선이
종특임
매너가
새퀴들
기아타이거즈
임대주택
제한속도를
나눠서
싱글
근거로
1인분
짬뽕
전방주시
킥라니
개못생겨
배불뚝
꺼지라고
마트에서
멱따는
으이그
꼼수
모자랄판에
나중엔
지오왕
똥양인
혼전순결
무고한
트렌드
인공지능
꿈꾸는
갇혀
간신히
성윤아
귀천이
음모론
시나리오
쿰척쿰척
강약약강
400
a컵
eat
hi
min
year
랄
쫑
##ᆺ네요
##ᆺ습니다
##uck
##ight
##5일
##ㄱㅋㅋ
##per
##ci
##60
##이거든
##지면서
이탈
이따구
##하데
##에대한
아하
##아픈
##리한
##리라고
##리그
어카
어눌
##자에게
나라고
나쁠
걱
거거든
##해결
저소득
저절로
##으시고
하자가
가긴
가관이
##을라고
##을걸
지친다
마요
마카
조동
조루
다리는
시누
안가지
안내는
##대굴
있더라고
자초
자르는
보잖아
##주를
##주겠냐
해먹고
해달라는
아니든
말하니
내야지
##염이
대결
인어
일해
일처
일하지
일이라고
뭐여
애지
기후
##수육
우겨
##범에
수법
개들
개들은
개같
차주
##되었으면
##전에서
##는거고
여자들이랑
##건너
##일으
##우우
고기가
고기를
고치고
죽었음
##차려
##모를
##오늘
주부
주유
주는게
주식으로
돈내고
##할께
##먹는데
전복
전후
피하는
피규
##와는
살펴
싶었던
##소식이
우리과
생각해야
하는건가
공권
왔어요
비서
유아
유쾌
##긴하지
들게
들으니
들리네
##었던데
중심
##갤
##개념
세수
세번
세운
##때메
무슨죄
상상이
않겠다
불면
불교
처단
간에
화낼
배출
##통행
재발
눈앞에
장님
구리다
거지라서
치더라
치트키
##타서
동호
얼굴에서
얼굴인데
감추
선발
##줄아나
영수
영끌
의뢰
따먹은
##중요
##역에서
##줬다고
##줬음
벌어야
알아보
알아볼
알아들으면
음쓰
뒤로는
##끼면
경욱
##연예
##충이라
##계로
오늘의
발끝
발연기
안되잖아
교활
학기
듯한
##집어
간호사나
간호사님
##못하면
놈들한테
나오기
본업
##땀
꼴리더라
맞았냐
##박혀
분수를
소리에
백인들
꼽고
패럴
잡채
얘길
속국
속으로는
살아와
살았네
키로
##온나
직장에서
##석열
엄마들이
적을
그만이지
팥
파고
파워
여기다
귀척
필기
갈수
세상인데
출시
시간에는
국민들한테
##륨
멍청하네
##천사
##한거면
##사람만
태우
괘씸
생겨도
호감
폭락
돼지랑
돼지우리
찍힌
##주는건
뽑혀
끝에
식빵
거기까지
맛으로
카공
카리스마
듣는다고
어린데
특혜
갑시다
##량을
여자들끼리
온몸
쪽지
불쌍하지도
산다는
난리지
자살해야
기사라고
나가요
##알려
글래머
순기능
보여준
있다더라
댓가를
텃
터뜨려
하루라도
늙을
늙었으면
먼가
운동할
댓글은
댓글창
뉴스네요
풀어라
바가지나
아깝고
용어
자체는
시키냐
독거
##커플
##쪽이
경찰도
붙으면
얘기하면
해주는게
아프게
속도위반
겁이
논다
니네집
여성은
높지
##폐기
앉으면
했는데도
##our
자랑스럽다
빡대가리
먼저다
먹을거
멍청한놈아
중요하지만
물어볼
귀여워서
낮고
암것도
100명
남편도
키우기
올라와서
##뜯고
생기네
육체
육덕
부모님들
부모님을
팬싸
뒷바퀴
프로게이
궁금한
괴물이
군부대와
모자른
##등학교
개돼지들은
전쟁터
훈방
뿌리면
색출
##ᆯ리포니
존재하지
##해보자
##해보이는데
사장은
나올지
하지마세요
그지들
돌아가라
여행도
못해줄
없을걸
준비하고
나쁜놈
##먹은게
힘들어요
벌어진
덕후
떨지
미래는
면상도
짜증나지
모습에
하다못해
다행이야
부족한데
자동차회사
외모에
바보야
지네들
놔두면
박아버리고
가격으로
목숨걸고
초딩들이
살기좋은
they
저능아들이
느낌도
결과물
던지는
포기해라
도망간
도망쳐
묻혀
해봤는데
선택을
문화를
하늘을
아니잖아요
##드리겠습니다
국회의원이
나간다고
한남이라
모양인데
모텔에서
석방
##지않나
돈벌어
풀어줄
촌스러운
감독은
들어오게
티볼리는
처먹어서
비교가
죽이자
부대를
어쨌다고
왤캐
무섭다고
표현을
쿵쾅거리는
밝혀라
##보호구역
소추한남
괴롭힘
뚫려
미치지
##샛기들이
강남에
대학병원에서
돌아다닐
베네주에
제목만
튀어나와
튀어나와서
발언은
훈련을
앵무새
그쪽은
열받는다
its
및힌
비난하는
동탄성심병원
##묵고
##❤❤❤
안좋다
덤프트
체납자
베네수엘라가
뱉고
자세가
격리시켜야
빤스
중독자
뭣같은
문재앙이
군사시설
미끄러지
이정도는
여배우가
죽으라는
죽으려면
죽어서도
할줄아
간호조무
돋는다
##뚫
앞뒤가
깎아내
음침한
##무섭다
누군가의
하교시간
집안일이나
##ㄱㅋㄱㅋ
##킥보드
안그러면
이대남
다스려야
혼전임신
영감탱이
술취해서
별풍선
빌붙어
대가리가
슴가
더러우니까
보여주기식
건방지게
허영심
사리분별
냉장고
칸막이
팝콘
길바닥에서
천조국
엉뚱한
얍삽
자괴감
##어떻게
##ᆨ꽥
엊그제
호그와트
눈코입
omg
프로게이머
33
42
65
77
큼
쿵ᄏ
톤
ㅂㄷ
##ᆺ노
##ᆺ물
##꾹
##틈
##ward
##19
##1신
##hh
##pe
##이렇게
##이겠다
##갚
##가던
##가방
이로
##라구요
##도안
##하겠노
##들여서
그곳
그자리에서
엇
##야하는
거리네
하든지
##시니
##시스트
가릴
##냐ㅋㅋ
##한남이
##인한
##인격
모는
지지고
지장이
지렸다
마치고
조던
다하네
다했지
시부
안하려고
여장
여혐이
##사한
##사일이
있는것도
자생
보긴
보릉내
##주지도
한줄
한류
한탕
한거냐
한몫
없도록
바란
##겠단
아니란
##들이잖아
말한다
말해야지
내게
##였대
##구조
##구독
정정
대졸
못되
못해요
인스
일과
뭐하노
사람인지
기피
오기
오마
오다가
##치니
##수당
남경
남동생
##바엔
##드려라
개편
##정으로
부드
부채
##일이야
##우예
##우먼
제압
고3
죽길
죽자고
##오니
##옷이
주는거
주체
주시면
먹도록
많으면서
##미를
##할건데
##내도
때나
얼음
##민폐
피할
##소설
할당
##더라ㅋㅋ
##동생이
공원에
공뭔
들었습니다
##었으니까
##질알
중에도
도생
저런놈은
입어서
무슨일이
##분들을
##분들의
##없던데
문빠
국지
알코
알몸
집앞에
##것냐
##선언
연명
##회를
재주
신안
눈온다고
근성이
구글
##청에
정신으로
줄이면
스님
스킬
선행
이런걸로
영악
영철
일본인을
##역에
결함이
애들한테는
##형은
알았잖아
음원
뒤가
좋아라
좋아도
쳐넣어야
##학력
##재명
하지말라고
##충이네
타인
원치
발찌
머리부터
##해야하나
실례
법원에
본거
관찰
계곡
빨개
빨때
##파라
까칠
꼬여
쓰레기도
잡치게
현피
살아요
술처
##놈들도
앞가리
말이잖아
##패드
똥팔육
끄지라
평화를
아이스
후두
넘었지
막말을
해야하지
##다니냐
##다니네
몇이나
번이나
명을
급발진이지
목적으로
받았대
갈라서
한남아
국민들에게
길다고
##식이나
##천길
피해자들
피해주지
빼도
먹고사는
초과
##거리가
한번은
##끓
이해안
죽었어
답인
끝내고
필요없고
보내지
보낸다
##하면서도
싫어할
은폐
종목
살인이다
살인자가
질라
##올리
##투자
불쌍하다고
축의금
글에
광복
테크
시켜도
깨부
라디오
하루만
금수
어쩌나
팔지
북한과
##아니네
윤통
삼일에
충실
헐벗고
예쁘냐
예쁘긴
##시키는게
정신병이다
낫잖아
##컷이
경찰한테
하는거다
생각해보니
사형은
나한테도
다음부터는
국가안보
철철
곳곳에
아프냐
알바는
알바하는
찐따같이
년아
억압
놈들만
꺼졌으면
말았어야
찾아야지
챙길
벗겨서
울나라
먹을게
미안한
뛸
중요한게
암담
암캐
멋지고
멋져요
딥
디젤
못생겼냐
있었지만
떡치고
밀어서
퇴화
기본으로
딤디님이
보호하는
상황인데
숨을
지키면서
행복을
행복하고
스쿨존에
쟤넨
피해자의
세계에
오빠랑
나서는
밤늦게
##뿐인
이쁘더라
걸렸다
핵심
준비하는
무능해서
딴데
지방에서
힘들었어
빨갱이들은
씻어
쓴거
그리스
덕분
넘었는데
자유가
불법으로
##놓지
똑같아서
떨려
떨거지
없나보네
소름이다
삶에
했다면
민폐를
찌질하다
##탓을
제정신이야
자동차가
민식이가
차별을
악플이
악플을
끝났다
문신돼지
기레기야
##생각은
놔두
팀원
##힘들어
조사해서
쏟
쏘니
##새끼들은
이혼하고
저능아가
비싼거
더럽다고
존경스럽다
시위하고
지내다
무기력
어울리
옮기는
하늘에
다이어트를
손님들
환장을
줄어든
시골에
카메라가
##지않게
돈벌고
돈벌려고
굶겨
12월
지구를
개웃기다
새벽까지
옥순이
가끔은
내용을
추천해
##흙
괴롭힌
발암
뚝딱
종교는
커플들
국방의
작작해
메갈들
이슬람은
친일파가
샛기들이
안나오는
꽤나
꽥꽥
부정선거
손웅정님
비정규직
옳지
가치를
가둬서
##하려다
종특이지
육아휴
cho
##거같아요
싱크
날아가
참견이야
까불어
요양원
청와대가
집착하는
이하도
사시미
느낀다
좁아
##답답
일으키는
법조계
결론은
어려서부터
기집애
쎈척
자업자득이다
전교조
긍정적으로
보아하니
수단으로
계단에서
버러지가
safe
날씬한
땡중들
자발적으로
한입만
움직여
뜬금없이
재택근무
쭉쭉빵빵
count
하타치
텔레
송중기
장학금
킬포
초콜릿
스튜어디
뼛속
인테리어
대민지원
n번방
베네주엘라
쿵쿵
1찍
3초
4륜
6년
8만원
af
eve
fu
po
뜸
쟁
##ᆺ하게
##ᆺ팅
##할아버
##쿵
##ue
##ne
##ᆽ이
##10년
##지겠지
##가진
##고는
이적
이력
이별
##도에서
##하겠니
그말
그득
아티스트
##나야
##나는거
##데이트
거봐
거하게
거보면
저간호사
저것들이
저놈은
##거로
##기는데
하도록
하셔서
하반신
##시던데
가석
사악한
모이면
지독
마흔
안입
안뽑
##만하게
##깎
여직
여잔
##려는데
##사서
자아
한의
해가
해대는
밭
아니노
아니구만
아니란다
아니였어
##들이냐
그러길래
내비
##무죄
##여자들
왜함
정글
##슥
##스페
대지
대환
못봤는데
인프라
일시
ㅋㅋㅋ아
##치다가
잘안
잘해주면
되는걸
되었네
##바페
수만
갤
개천
차분
부수고
것이고
여자다
##건희
니만
고대
죽는데
죽으려고
##세탁
겠네
##모임
먹겠다
먹었을
먹었지
##미널
##ᆻ다는게
만두
만지면
전반
피어
살거야
공기가
비해서
유저
남자들이랑
들리는
군병
세호
입은거
상술
같은건
당원
성진국
국물
간대
##실패
화류
##했길래
배는
##린이
연대
##있겠지
##있지만
됐대
##당하게
구시대
##청이
한국으로
한국과
또래
동아
##살면
감성이
방을
방울
선민
##행복
##배들
영부
영식이
영영
싸워서
없는건지
##대로만
벌릴
자기관
과하지
좋아져
좋아하니까
쳐놀
##재가
##병에
원한
##경험
친목
친환경
##산은
심술
심리가
##크고
힘만
강민경
부모나
##집을
##매너
##해야되는
실려
실적
법만
법률
얼마든지
나오겠지
돌로
계세요
외양
꼴리네
꼴릿
다니라고
급하면
##파가
새는
몰락
분류
소리로
소리임
까진
병장
패면
잡히면
##반성
##증후군
살아봐
응우예
술자리
앞서
앞장
했나봐
빠짐
달리면
추가요
추억이
수준이라
##이네ㅋㅋ
막으면
적출
사고난
그거라도
해야겠네
친구들한테
두배
급발진의
나이들면
편하지
편파
편협
##싶은데
##한거고
태국
태워서
태움이
초밥
죄인이
공부하면
군대냐
페미랑
찍는다
걍밍경
없다는데
죽었어야
될수
미국으로
##강화
끝장
필요하지
김성
싫어함
처벌해야지
듣게
어린애들이
떠네
썼다고
종업
종자들이
메타
가족의
면도
질린다
##하시나요
쪽에
월요일
불쌍하더라
##해주자
산으로
난리다
담그
방송이
정치판
정치검사
##시켜도
정부도
빨아줄
대단함
대단합니다
척추
##짓고
##말고는
지역감정
누구하나
##는다니까
가슴을
끼치고
운동하면
운동이나
지나치
지나친
다녀왔는데
그럴수
댓글만
생긴것도
##했는데도
착해져
기분이야
레벨
##시키려고
시키네
낫냐
##빨로
다음부터
것들인데
아프고
직업으로
##씩은
논의
높고
찐따들은
총을
가는구나
##주의가
모르는구나
보이잖아
##고싶냐
##놨더니
처음이다
빡촌
젊어서
##쉰
미쳤구나
##봤습니다
중요함
낮게
갖추
고생하는데
##먹을땐
장애인을
디져
안타깝게
떡상
할머니들
각하
거냐고
##병원에서
헤어지는
50년
신고해
신고해서
보호구역이
바람직
전쟁으로
팔아도
불편하다
접수
퍼주
희롱
##해보니
태어나지
sns가
합의는
##자들이나
적당한
올려주
올려주세요
끊는
##먹었다고
집안은
동물원
동물학대
설치냐
설치하고
벌어지는
떽
귤
저랬다
##ond
너한테서
떨지마
4050
고소가
##땅에
##vel
심각해
맡은
맡길
가게에서
버렸어
수업시간에
하시는데
하시죠
저능아들
뻔뻔하고
10년전
##ᆨ싱
어울린다
유전자를
활성화
않을텐데
모르겠어요
##지역은
범칙
모텔비
극혐인데
말투도
##떠는거
시원치
시원하다
환경오
스타일링
촌동네
부탁드려요
도둑놈이
정책은
따위는
##ite
확인해
주차를
쌔끈
진정해
우울해
노동자들
뜻을
관계가
미치겠네
저희가
직장인
무단횡단하는
판새들이
성별을
지역경제가
하겠다는데
머저리야
관광객이
안나오네
뱃속에
두번다시
좌빨들
점심시간
지적질이야
생일선
##빌려
이뻐서
속도제한을
쉴드치는
정확한
조롱하는
19금
출연료
자존심은
여기저기서
껴라
예산이
도덕적
꽁치
즉사
견찰들
여대생
합리적인
탱크
처박혀서
임대아파트
문과는
끌려가서
젠장
소름끼쳐
징징거리지
본인들도
##아이돌
자본주의의
게시판에
진실이
냔들
엄지윤
찬양하는
두렵다
애낳
아름다
자격지심이
마이너스
천안문
쥐꼬리만큼
소속사에서
원훈님
지저분한
한숨만
제작진이
힙찔이
정신이상자
아시안
구제불능
나랏돈
떠오르
컵라면
전범국
탱탱한
일방적으로
국군장병
있을때잘하지
미칑
사우디
노무현
야쿠자
##방지턱
별의별
포토샵
오랫동안
국평오
알코올
앞가림이나
34
3시간
3천원
3단고음
4만원
86
8년
80년
궤
ㅇㄱ
ㅈ같네
##ᆺ든
##ᆻ더라고
##녜
##떤
##뭘
##툴
##썸
##ting
##so
##mm
##aa
##ax
##ㅈㄹ
##ㅓㅓ
##지잖아
##지랄
##지역이
##가보다
이네요
이등
이해도
이백
##라잖아
##도와
##어려
그라
그나라
그지가
그들을
그꼴
아ㅋㅋ
##리야
어허
##자촌
나요
나치
나은데
나셨네
##롤
##로부터
##데요
거려
거라도
저걸로
저따구
##기전
하진
하질
하얘
하층민
가길
갔다고
가장이
갔더니
가시나
##인이야
##인양
모더나
지령
마르
조아
조무
조져야
너에게
다짐
안하는거
안먹을
안그런
안중에도
였으면
##대국
##댄스
자폭
자립
자르면
해봤
해먹어
해병대
밤이
##마비
##짝에
##보내는
말밖에
말던지
내요
##였고
##구니
대대로
못입
못했네
인육
인플
일한
일일
일좀
일삼
무쓸모
##붓
##부도
뭐하니
애먼
사람에
기적
기고만
오른다
생얼
잘벌
잘해주지
되든
우끼
##겨라
수저
##드글
개딸
개짓거리
개재미
차면
노상
부수
부조
##되는지
미드
얕
욕이나
##르노
제3
제시
고르
고등
죽이네
더블
##던게
버니까
##오는게
주거
주딩이
돈많
돈아까
먹지도
먹었다고
먹힐
##미쳐
만나라
##할줄
##말든
##먹다
때매
전염
피면
##와꾸
##소기업
할짓
##동탄
공을
왔음
왁싱
비명
유느
봐줘야
봐주면
##번은
##었니
군의
##질이냐
##질환자
도는
##문제로
건축
걸리냐
##안해도
당하시길
성에
문정부
알수가
##했겠냐
##이라는걸
##선고
배터
배경
##키들
##새들
##걸이가
재정
재대로
됐음
##당한다
근황
장군
##남을
나라라고
구원
구름
거지꼴
치아
치밀어
##타면
모르겠냐
모르쇠
역사가
방관
선진
선조
선풍기
##이짓
이런말
##배워
어디라고
영광
싸서
싸면
없는건
따질
딱이네
따까리
인간관계
벌었으면
벌어도
손자를
반항
음성
음바페
뒤진다
좋았어
##끼야
##학원
서열
하지말아
들어본
##경쟁
##멈
힘드시
문제죠
같았으면
##셨을
나오네요
관음
##관은
양파
꼴려서
꼴리게
없어져서
##감염
##파에
욕나온다
욕나오네
##ㅋㅋㅋㅋㅋㅋㅋㅋㅋㅋㅋㅋㅋㅋㅋ
병1신
잡혀서
민사
##증을
속초
허술
##종사
##패쓰
달릴
춥고
운전이
넘지
최신
30도
막힌
밥먹는
밥벌이
찌찌
결혼까지
솔찍히
1000원
그거에
이상의
몇대
파마
파퀴벌레
번탈
만나는데
솔직한
명언
않았다
갈고
편이
출생
길어서
단골
태클
많아야
이게다
호캉스
설득
폭삭
사회성이
악한
커밍아웃
##가는건
찍냐
돌아간
돌아버리
많은거야
범죄에
##ᆻ지요
미국한테
떨어지지
##강이
딸랑
볼땐
김원
보내버려
병원비
어린놈이
떠난
썼는데
썼으면
특성
갑갑
군인상대로
통짜
통째로
먹어보고
월북
##해주길
자살해서
자살하는게
나가게
어떤거
만들어주세요
##이어야
빨아재
##짓하는
임원
극히
변이
해서라도
시켰으면
시켜줘
금전
별로네
휴게
휴전
아까우니까
##ᆷ막
윤정부
사실관계
삼아
용납
배우를
복어
노래만
체력이
안보이냐
다음주에
해주길
속도도
ㅇㅇㅇ
반성도
어렸을때
베란다
폐교
##범을
##범으로
##립시다
자랑스럽게
자랑스러워
아이돌도
미쳐돌아
알아서들
왕창
암울
빌미로
만든거
##규성
##규명
##나오지
헤어지면
몸매를
가정에서
유튭
지지리
의료업
창작
딤디의
일반도로
숨도
##넘들이
##나봐요
##북한
##둬야
정권에서
와꾸에
와꾸를
눈치없는
정신차림
##해보세요
세계를
뚱뚱한데
사장한테
짐승같은
선수들이
학생들은
##버려야함
전라도가
권력을
공개처
일어나고
##이잖아요
기대를
지원해
6개월이라니
벌어먹고
유명해
자유지
사망한
성범죄자들
탄압
이야기하는
알려줘야
40km
바퀴에
어이구
민폐끼
자동차를
외모는
겨울엔
생활은
전화번호
강력범죄
##몰랑
좌파들은
좋을거
단속카메라
버러지야
버러지들이
딸배는
딸배들은
노숙자들은
아래에
them
전문가가
던져서
포기해
바퀴벌레같은
찍어버리고
유전자는
어딜가
옮기고
생명의
##한다는건
무서워요
예의는
노답이야
그것보다
출근하는
죠랄
치료를
##층에
어찌나
##풀어
##둘이
큰일날
돈벌기
가라앉
꼴페미들이
들어오지
들어오는데
고민이
도둑놈들이
##항공
직원들이
허세만
쫌생이
타이어를
용서해
박탈감
무섭긴
주민들은
후보로
낙태를
16년도
센스가
고졸이
맞을래
먹여주고
썩은내
남녀평등
올리는거
올리려고
드러나는
과제를
규제가
옷입
짝사랑
싸우지
개빡치게
기도한다
겉으로
덩어
작작해라
익사
대리점
씹어
씹선비
얻는
전세계적으로
스시녀가
자위행위
멋있어요
살려달라고
##벨트
먹었잖아
재밌어서
전과자
빚이
덤벼
190
즐거워
시끄럽다고
임산부석에
부담스러워
일주일에
벼슬이냐
친절한
본토를
섹드립
심심한데
껌딱지
묵묵
속상하다
무슨일인데
##띨
모쏠아다
핥고
찔려
주머니에
마디도
메뉴판
샠히들
폴란드
마실래
찰떡
험한
애매하게
몽둥이가
우월한
쳐맞아야
추잡한
잠시만
어딘가
소수의
저렴한
꼼꼼
셔틀
바랄게
ㅎㅎㅎㅎㅎ
깜둥이들
햇빛
못알아듣는다고
왈가
정직하게
트렌스
인신공격
쥰내
비제이
호흡기
반도체
아부지가
곽범
고스란히
퉁퉁
수수료
네이버
번지르르
전동킥보드
밉상
콤플렉스
윤짜장
길고양이들
케이팝
한통속
드글드글
시다바리
끊임없이
오락가락
뻐드렁니
공론화
탈원전
걱정도
인스턴트
4개
4가지
700
ep
fir
gr
kor
wish
yt
ㅎㅌㅊ
##뤼
##툼
##털어
##io
##ning
##ㆍㆍ
##뺑이
##mi
##11
##ai
##ㅅㅅ
##ᆶ은
##ㅂㄷ
##이번
##이길
##이는게
##는대
##가입
이니
이라니
그리는
그집
##리러
##나이
##납니다
##자유
##야하나
나니
나겠다
났다고
##데가
##데타
저만
##기때문에
##기보다는
##읍
##시야
##시브
각이
가위로
사육
사춘
사내면
모기가
지르는
지혜
마두로
넘이
너때문에
다칠
다르고
시건
안남아
안빼
##만하고
##대장
##사태
있기에
있겠니
자의식
보톡
한무
한가지
한민족
없거나
바르게
##마셔
##보라
말살
말그대로
내시
정황
대사
대주면
못고
못하다
못가고
인기도
일인
일하다
일해라
일해도
일찐
무더
오게
오신
오열
ㅋㅋㅋ진짜
##수한
잘하는거
되죠
되돌아
##음에
남기
남매
##바란다
##겸
수나
수로
개비
개열
개진상
##정의
##간호
차기
좋니
좋기만
부타
부양
##되도
##되면서
##되긴
것들한테
미녀
미사일이
요리를
##일인데
##우가
고추
너무하지
죽탱이
##착이
##ᆷ이라고
##오더라
주도
주옥
돈인데
돈벌레
돈자랑
먹는지
먹은거
먹히는
먹으려
많이나
많으신
##미국
전수
그랬다고
##성형
맞는게
살은
소신
소린
##화자
할일이
우리만
##렉
와다
비단
비실
비누
비효율
유대
남자들의
남자라면
도지
##때나
##비야
걸면
걸리지
저런것
입벌
무슨말이야
상간
상의를
당했대
##체류
##과실
않다고
않거든
성심병원
쓰다가
##하지말자
문드러
알라
알더라
집가서
받으니까
받기를
##선수도
밸
배제
배틀
예쁨
##하다며
##걸리면
재촉
장교
구치
구더기
##준화
또다른
치부
치약
##탉
동화
동갑
##함과
##피는
감각이
역주행
선한
##쳐먹는
싸물고
일본처럼
인간이지
싫냐
싫던데
에고
손바닥
자기랑
반장
반팔
음악이
좋아하겠냐
경북
##연습
안되면서
##예산
교화
학위
##빠져서
##작권
지금보다
간호사분들이
판자촌
실리
실시
실습
돌팔이
올바
양말
꼴뚜기
##박는
열이
코너
망친다
색이
##받는데
##인이면
분열
병에
패야지
##루스
속터
##두꺼
보고서
##군대
##공산
##놈을
빠가야
달동네
추구
추월
추악한
똥파리
끄는
운전자들이
놀리면
아이템
최상
3000
밥먹을
찌꺼
찌푸
웃겠다
날릴
결혼한대
10만
해야한다고
해야할듯
아줌
##글을
파서
파헤
##적인거
##돌아서
명은
필히
##천만원
빼곤
뺏고
단어가
공부한다고
공부하러
호랑이
##잡을
페미나
찍지
죽어버려
인정이지
채소
청국
청약
약하게
믿기
징벌
뉴욕
끝이야
필요하냐
식품
냄새야
이러한
토토
토익
토왜
특기
갑툭튀
가족한테
##하기라도
살인인데
질려
질주
싶었다
쪽발
코로나도
코로나를
##해주냐
방송도
대통령되면
정치는
골치
골뱅이
정부를
만들었어
만들어낸
빨아주면
크니까
크림
인성으로
대단하지
글은
극악
광우
걱정이네
테슬
사이드
##시간을
알고리즘
깨달
깨물고
끼니
팔로워
외국으로
##아니지
다녔는데
으악
늘어날
준다는
사실임
싹퉁
삼십
삼성이
용접
링크
점검
예쁘지도
자체다
경찰을
체벌
정상이지
##헛
##허가
얘기할
공무원도
생각이라는
안됐는데
여성들
어렵네
##않을까
사랑에
##고싶나
말아요
말아먹는
찾아봐
찾아볼
##하자나
챙녀
##쉽게
##있어라
미안하지만
##응신
귀엽다고
암세포
남친도
키우냐
디지게
환자의
미친년
미친놈이
못생겼네
안타깝고
있었겠지
할머니한테
책임지는
무시하면
뽑아놓고
서울로
##센치
##센티
신고를
신고하면
게이들이
굴려서
관심받고
지키지
바람핀
이기적으로
이기적이고
사건에
김치년
징징징
행복하세요
깜놀
시험에
건강을
피해자만
저번주에
털면
짐승이지
위험함
위험한데
##놈이랑
확실함
##뿐이지
##뿐이다
땅콩
이쁘네
볍
염치
공개해서
끊을
바꿔야지
일어나야
동물은
도와주면
검사도
내일까지
규명
##할때가
알려주면
십덕
40년
했다니
##인간들이
누군가는
커피는
커피가
자식이나
교통체
든다고
안가져
연락을
수술실
느껴지는
있는거임
효자
조사하고
자연산
잘생겨서
빠져나가
##숭아
15살
뜯어먹을
풋
옮길
키워야지
##지역에
노답이네
실제로도
못알아들어
뭐하냐고
워홀
나쁘고
##보이던데
촌티
촌뜨
##가족들
지나가다
처먹지
왕따를
지옥에
정신나가
##블러
선동하는
서민들은
황제
##총으로
인도에서
검찰은
근무하는
지껄이네
혈안
새끼가
썩은내가
아재요
관계를
발정나서
훔친
드러나
호구냐
향한
불쌍한척
거라곤
##좔
개빡친다
뚝배
뚝뚝
눈알이
200만원
커플이
뼈빠지게
치워야
귀찮은데
몽골
빙의
25만원
닮았어
전세계에서
샛기야
무개념이
##팬들
사업을
##솔로
##뿌리고
몇번이나
몇번째
한국어를
떨어지더라
간첩이
작가들
기계가
사람죽여
질투하는
##조차도
자영업자들은
덤비
아버님의
화천에서
70대
감형을
##ool
안맞는
안맞아서
할수있는
맞추는
할말은
단어를
허락을
나타나는
고양이는
##완전
##흡연
빽으로
##좋은데
곰보
쏠려
집어넣
구린내
안보불안이
은퇴하고
마땅한
줘패고
랩퍼
박멸해야
등처먹고
넘쳐나는
위협을
대형견
2022
reg
여유가
옮겨라
핫한
고의로
흘러내
##군번인데
개노잼
좌좀들
##부장관
차지하고
##드릴게요
저것보단
그나이
시작이다
##👏👏👏👏
소름돋는다
개쩐다
헬창들
대굴빡
퇴직금
이마에
개역겹네
무례한
무관용
정수리
##사형사형
자발적
징그러움
##같으니라고
새삼스럽게
청산가리
거들떠
우한폐
##다니다가
적절한
소상공인
야비한
넉넉
맞바꾸고
스티커
민중의
넷플릭스
자들자들
애초부터
도리도리
패럴림픽
ㅂㄷㅂㄷ
외양간
김원훈
first
korea
3류
4시
5천원
88
here
tal
쯔
텀
ㅆ창
##즐
##꽉
##뉘
##ure
##찜
##70
##6년
##이미
##이기도
이집
##다더라
##라지가
그들
그중
압니다
아득바득
##아이들
어련
##나보다
##났나
##자냐
##자와
났으면
거진
저의
##거슨
##기름
##김에
##으란
하드
하거나
하소연
가루
##인디
사도
사생
사먹는
사시길
사상을
짚
지성
마인
조작이
너같으면
다쳐서
다치면
시한
시부모
안쓸
안그럼
여주
##대만
##대충
##사님
자를
보육
한이
한듯
한의원
해내
##마지마
그러겠냐
##보니깐
말하자
말라니까
##무룩
##굿
정식
정육
못먹는
인거
인마
인연
일회
무역
무분별
뭐한다고
애처럼
애랑은
오셔
오너
##신분
잘좀
되려면
우물
우매
##음을
남다
숲
##드림
개야
개작
개추
ㅋㅋ진짜
노는데
노는거
부과
여자라면
##장구
##하고싶다
니미
니보다
고가
고유
고개를
죽자
죽이냐
##차이가
##세대는
버거
버네
버리네
##오세요
줍
주정
주장을
돈안
돈받아
##미들
그런걸로
##내로
전설
그랬음
그랬잖아
맞제
##봤음
핏
살라
살기도
살려야
소모
##식에
봐주고
##졌대
##었겠다
##었더니
중산
중궈
걸레
걸린다
저런말
저런놈들은
상징
난방
당했네
않겠니
성립
성향이
쓰지마
간주
##실텐데
배만
예측
누드
##있을까
눈앞에서
장수
##방네
구하고
구함
구석에
##속도가
##용품
##함도
스패
스승
모르더라
모르겠지
얼굴부터
방위
윈
느린
##중임
인간임
뒤늦게
참가
쳐하고
쳐묵
경로
##연합
타면서
원인은
발진
##혁이
물은
물려서
아무렇게
실무
나오라고
본방
##관에
##인들을
올게
그럼에도
꼴등
없어보여
##파탄
##양심
샌
몰빵
분식
분쇄
백번
꼬시는
병크
얘들이
##증으로
살았어
살아가지고
살아남아
보고만
보고싶어
했거든
중국이랑
아직은
후퇴
좋은거지
회피
찌들어
적성에
웃으면
취득
별일
박수를
사고의
사고낸
10차선
해야겠어
해야되는데
해야되냐
그만했으면
두지
두드려
몇명이
만나자
##절절
갈때
##불고
편이지
세상의
##싶으면
##ᆻ을거
피해준
많아져서
초졸
##출혈
##거리도
공부해
호남
설거
헤픈
페미에
이해하고
돌아다닌
재밌잖아
학교앞에
너도나도
한녀한테
20분
되는줄
징역이
김영
김건희
어제는
어제부터
거기지
큰거
큰도로
싫어도
힘들듯
##귀신
처벌받아
듣기만
뇌까지
이러는데
##토스
##토록
종합
##하기에
씨이
씨가
이미지를
마음껏
자살하지
영상들
나가자
나가기
##순간에
만들었는데
빨아라
크냐
크기가
##포기
글도
지역을
변하는
투성
투쟁이
누구인지
##는다던데
너네도
알고보면
하룻밤
##리지말고
외국인들은
지나치게
그럴만
그럴듯
댓글에서
준대
바가지는
바가지가
사진에
나온게
렌트
예쁘다는
정신병이지
시키는데
독감
경찰들은
사형집행
보기에는
##숙한
해주시길
생각이냐
겁니까
알바비
논리로
총리
베껴
사랑해서
사랑한다고
썩게
thou
상관없다
말아줘
찾아라
##찬다
행동도
##담을
귀엽네
괜찮냐
암탉
고생하고
##잘해
있었구나
책임지고
##평생
지지율이
의료보험
시작했어
침팬
오래된
##대가리가
숨만
지키라고
뿌려서
노력해도
쟤네도
건강보험
탓이야
탓이지
나올때
밤에도
다르잖아
아버지한테
힘든가
연기력
이름은
##해줬더니
꿀팁
늦을
늦잠
끊겨
기대하고
무능하고
판결한
힘들었다
맛있을
떼어
##ath
신상털
규모
##이상은
못할듯
면상만
쪽팔리
찢어진
40키로
했다던데
부족하면
청주가
커피나
기업들
여자애는
치고는
악마를
##눈이
아파트는
팩폭
옥수수
가게들
책상에
잃을
노숙자들이
불러야
상대적으로
초딩이냐
만드니
비슷해
재밌던데
열등감이
남았다
옮을
고양이들이
##했을듯
##eed
예뻐도
면허를
면허취소
블라
그것들은
버스에
치료가
다를바
보통은
놀랍
괜찮아요
##지않은
부탁합니다
깡촌
지옥에서
지구에
후회하지말고
죽이기
황천길
확인하고
루팡
마찬가지다
의무적으로
쳐먹으면서
참았다
##ㄷㄷㄷㄷ
하셔야
기준을
국뽕에
쫄딱
칭챙
연예인들도
보여주려고
평가하는
발생하는
설명을
살다보면
근본적으로
뭉쳐서
버틸
점심에
국제적
소속사가
웅장
만만해
슬프네요
속도제한이
몸뚱이
째려
한마디도
뱉는
80대
만져보고
나은듯
우스워
빨아먹던
정보를
자존심만
예산을
공산당이
사람으로써
사라짐
비위가
유부남이
담배피고
##억이면
star
맛있어서
저질러도
##ung
둔갑
##ᆿㅋㅋㅋㅋㅋㅋㅋㅋㅋㅋ
깊게
밥먹듯이
성소수자에
##한국시발
amaz
외롭다
##thing
근거가
구질구질한
##혁명
요양원에
환불해
넷상에서
감수해야지
##ㅋㅋㅋㅋㅋㅋㅋㅋㅋㅋㅋㅋㅋㅋㅋㅋㅋㅋㅋㅋㅋㅋㅋㅋㅋㅋㅋㅋㅋㅋㅋㅋㅋㅋㅋㅋㅋㅋㅋㅋㅋㅋㅋㅋㅋㅋㅋㅋㅋㅋㅋㅋㅋㅋㅋㅋㅋㅋㅋㅋㅋㅋㅋㅋ
골반이
상습범이
험하게
백화점에서
차려라한국시발
도서관에서
뉴질랜드에서의
짭새들
불행한
##riend
드립니다
셔츠
기획사
쾌락
##선생님
모으는
띨빡
엄중한
횡포
둘째치고
22사단
매달아서
찜질
씨부려
365일
가혹행위
독박육
초보운전
##くなくなくなくなくなくなくなくなくなくなくなくなくなくなくなくな
전업주
갈기갈기
쑥대
뽄새
코로나라
군인가족
의지박약
##사무소
자적자
갬성
부스터샷
니까짓게
어좁
공영방송
every
가당키나
마카롱
##폐기물
육아휴직
인플루
ytn
칭챙총
1주
1시간에
2일
5명
by
day
ed
heal
would
쩐
##돠
##댜
##ᆷ하
##ᆷ으로
##퉤
##톨
##썰
##퍽
##펴서
##lish
##3년
##ks
##gd
##♥♥
##8년
##💗💗
##이는거
##이질
##가들
##가리고
##고시
##고사
이만큼
##서라도
##에에
아아
아가야
아시죠
##로를
거스
거두
거칠
걷고
거였어
저두
하란
##시는거
가여
갔나
가식이
##인력
##인형
##인건지
모병
마늘
마셔서
마셈
조질
조치를
조규성
다단계
안하게
안줘
안싸
안주면
안하잖아
##만해
엽
##대라
있는걸
자리는
##주세여
한탄
해골
해먹을
바쁠
밧줄
아니겠지만
내라고
##무장
##여자들이
##여자들은
##하는건가
##하는건지
##구에
##의도
##스키
인적
인심
인명
일이고
일찌
무력
무기를
기증
기웃
오는거
##치려고
##치더니
##신청
잘해도
되지만
됩니까
우엑
남고
수당
수강
숨막
##드려야
개자
개탄
개떼
개많음
개백수
차트
차이는
좋겠다고
##ᆨ이고
부고
##되더라
##히는데
미신
미쿡
##건은
야생
요약
요리도
욜로
##일거
##일러
##일껄
##르텔
죽인거
죽은거
더라
더해
덥다
##모아
주절
주셔서
먹먹
먹든
##미인
##말까
##그마
##내미
##내세요
때린다
때리면서
전치
전파
그랬던
그랬겠지
얼쩡
##봤을
소국
소란
소변
싶노
싶기도
##소서
##소멸
할건데
우리나
##조무사
드세
드리고
공용
왔습니다
비굴
유입
유희
남자에게
봐서는
##져가지고
##운행
##발을
들음
들더라
##었지만
##유가
##유리
##유튜
중이다
중심으로
도살
도준이
##문이
##문으로
##개나
##년대
건들면
걸을
저런일
입좀
상부
당하기
않던데
성적인
불려
불임
불문하고
처넣어야
간거
간장
간식
##트려
집구
화난
화내고
##색이야
##걸음
신원
신장
눈까리
나라와
구리
한국이나
똠
##용을
치기
치졸
동조
얼굴과
##살롱
##위의
##위에서
감방에서
역사는
선태
어디를
어딨다고
싸도
의리
일본에서도
따름
##중심
싫게
에는
벌려서
애들때문에
쟤들이
과격
알아들
뒤틀
이제까지
서기
##재판
들어주는
원탑
##경을
발딱
발휘
안되는거지
머리수
##됐지
물류
물어야
심하면
학벌이
문제라는
문제입니다
문제라니까
부모라고
간호사만
##못알아
얼마야
나오죠
돌연
##따고
네네
다니더니
맞아볼래
없어지니
##들어가
##파이
나돌
망해야지
망한다는
망하길
##란트
[...]
